{
    "<unk>": 2,
    "!": 5145,
    "\"": 366,
    "#": 1303,
    "$": 720,
    "%": 4064,
    "&": 1222,
    "'": 705,
    "(": 357,
    ")": 1267,
    "*": 1635,
    "+": 1343,
    ",": 837,
    "-": 532,
    ".": 764,
    "/": 1220,
    "0": 657,
    "1": 352,
    "2": 362,
    "3": 513,
    "4": 604,
    "5": 642,
    "6": 718,
    "7": 767,
    "8": 807,
    "9": 860,
    ":": 1058,
    ";": 2162,
    "<": 1279,
    "=": 796,
    ">": 1875,
    "?": 5633,
    "@": 2488,
    "A": 317,
    "B": 347,
    "C": 327,
    "D": 360,
    "E": 412,
    "F": 376,
    "G": 402,
    "H": 367,
    "I": 314,
    "J": 449,
    "K": 509,
    "L": 406,
    "M": 337,
    "N": 399,
    "O": 440,
    "P": 350,
    "Q": 1195,
    "R": 371,
    "S": 311,
    "T": 309,
    "U": 471,
    "V": 569,
    "W": 370,
    "X": 1395,
    "Y": 575,
    "Z": 1168,
    "[": 685,
    "\\": 3467,
    "]": 2361,
    "^": 10563,
    "_": 4808,
    "`": 4600,
    "a": 257,
    "b": 275,
    "c": 269,
    "d": 288,
    "e": 304,
    "f": 277,
    "g": 308,
    "h": 289,
    "i": 1312,
    "j": 474,
    "k": 479,
    "l": 300,
    "m": 285,
    "n": 299,
    "o": 267,
    "p": 279,
    "q": 10662,
    "r": 374,
    "s": 264,
    "t": 256,
    "u": 334,
    "v": 410,
    "w": 266,
    "x": 2124,
    "y": 331,
    "z": 1976,
    "{": 1391,
    "|": 930,
    "}": 1782,
    "~": 5299,
    "¡": 94,
    "¢": 95,
    "£": 96,
    "¤": 97,
    "¥": 98,
    "¦": 99,
    "§": 100,
    "¨": 101,
    "©": 102,
    "ª": 103,
    "«": 104,
    "¬": 105,
    "®": 106,
    "¯": 107,
    "°": 108,
    "±": 109,
    "²": 110,
    "³": 111,
    "´": 112,
    "µ": 113,
    "¶": 114,
    "·": 115,
    "¸": 116,
    "¹": 117,
    "º": 118,
    "»": 119,
    "¼": 120,
    "½": 121,
    "¾": 122,
    "¿": 123,
    "À": 124,
    "Á": 125,
    "Â": 1587,
    "Ã": 6184,
    "Ä": 34754,
    "Å": 25370,
    "Æ": 130,
    "Ç": 131,
    "È": 132,
    "É": 133,
    "Ê": 134,
    "Ë": 135,
    "Ì": 136,
    "Í": 137,
    "Î": 7377,
    "Ï": 18074,
    "Ð": 12466,
    "Ñ": 141,
    "Ò": 142,
    "Ó": 143,
    "Ô": 144,
    "Õ": 145,
    "Ö": 146,
    "×": 14360,
    "Ø": 17550,
    "Ù": 18923,
    "Ú": 150,
    "Û": 151,
    "Ü": 152,
    "Ý": 153,
    "Þ": 154,
    "ß": 155,
    "à": 156,
    "á": 28053,
    "â": 2343,
    "ã": 159,
    "ä": 160,
    "å": 10263,
    "æ": 10545,
    "ç": 13328,
    "è": 5525,
    "é": 16268,
    "ê": 166,
    "ë": 31619,
    "ì": 23821,
    "í": 169,
    "î": 170,
    "ï": 27332,
    "ð": 172,
    "ñ": 173,
    "ò": 174,
    "ó": 175,
    "ô": 176,
    "õ": 177,
    "ö": 178,
    "÷": 179,
    "ø": 180,
    "ù": 181,
    "ú": 182,
    "û": 183,
    "ü": 184,
    "ý": 185,
    "þ": 186,
    "ÿ": 187,
    "Ā": 188,
    "ā": 189,
    "Ă": 190,
    "ă": 191,
    "Ą": 192,
    "ą": 193,
    "Ć": 194,
    "ć": 195,
    "Ĉ": 196,
    "ĉ": 197,
    "Ċ": 198,
    "ċ": 199,
    "Č": 200,
    "č": 201,
    "Ď": 202,
    "ď": 203,
    "Đ": 204,
    "đ": 205,
    "Ē": 206,
    "ē": 207,
    "Ĕ": 208,
    "ĕ": 209,
    "Ė": 210,
    "ė": 211,
    "Ę": 212,
    "ę": 213,
    "Ě": 214,
    "ě": 215,
    "Ĝ": 216,
    "ĝ": 217,
    "Ğ": 218,
    "ğ": 219,
    "": 220,
    "ġ": 221,
    "Ģ": 222,
    "ģ": 223,
    "Ĥ": 224,
    "ĥ": 225,
    "Ħ": 226,
    "ħ": 227,
    "Ĩ": 228,
    "ĩ": 229,
    "Ī": 230,
    "ī": 231,
    "Ĭ": 232,
    "ĭ": 233,
    "Į": 234,
    "į": 235,
    "İ": 236,
    "ı": 237,
    "Ĳ": 238,
    "ĳ": 239,
    "Ĵ": 240,
    "ĵ": 241,
    "Ķ": 242,
    "ķ": 243,
    "ĸ": 244,
    "Ĺ": 245,
    "ĺ": 246,
    "Ļ": 247,
    "ļ": 248,
    "Ľ": 249,
    "ľ": 250,
    "Ŀ": 251,
    "ŀ": 252,
    "Ł": 253,
    "ł": 254,
    "Ń": 255,
    "he": 339,
    "in": 287,
    "re": 302,
    "on": 319,
    "the": 1169,
    "er": 1931,
    "at": 379,
    "en": 551,
    "it": 340,
    "is": 318,
    "an": 281,
    "or": 393,
    "es": 1658,
    "ed": 1225,
    "ing": 5347,
    "ou": 280,
    "al": 435,
    "ar": 610,
    "to": 1462,
    "of": 1659,
    "and": 392,
    "ic": 14158,
    "as": 355,
    "le": 443,
    "th": 400,
    "ion": 22088,
    "om": 39030,
    "ll": 32660,
    "ent": 920,
    "st": 336,
    "ve": 1569,
    "ro": 686,
    "ly": 22404,
    "be": 1350,
    "ct": 310,
    "id": 4686,
    "ot": 30972,
    "ut": 3384,
    "et": 2123,
    "im": 545,
    "am": 716,
    "ow": 12334,
    "ay": 38762,
    "ad": 512,
    "se": 384,
    "that": 5562,
    "ig": 45329,
    "for": 1640,
    "ac": 936,
    "ver": 3326,
    "ur": 2956,
    "ld": 335,
    "'s": 338,
    "ation": 341,
    "ith": 342,
    "ir": 4173,
    "ce": 2906,
    "you": 5832,
    "il": 4229,
    "wh": 1929,
    "ol": 25776,
    "with": 4480,
    "ter": 1059,
    "ch": 442,
    "we": 732,
    "nd": 358,
    "ill": 2801,
    "if": 611,
    "ag": 556,
    "ers": 364,
    "ke": 885,
    "em": 795,
    "con": 1102,
    "her": 607,
    "was": 9776,
    "od": 16298,
    "ul": 14856,
    "ate": 15063,
    "ri": 380,
    "pp": 9788,
    "ore": 23751,
    "The": 464,
    "us": 514,
    "pro": 1676,
    "ha": 3099,
    "um": 23781,
    "are": 533,
    "de": 2934,
    "ain": 18959,
    "igh": 394,
    "est": 1556,
    "ist": 396,
    "ab": 450,
    "rom": 9267,
    "com": 785,
    "un": 555,
    "op": 1034,
    "00": 3571,
    "not": 1662,
    "ess": 3209,
    "ex": 1069,
    "res": 581,
    "ew": 413,
    "ity": 414,
    "ant": 1885,
    "by": 1525,
    "el": 1288,
    "os": 28686,
    "ort": 419,
    "oc": 420,
    "qu": 627,
    "from": 6738,
    "have": 14150,
    "su": 2385,
    "ive": 425,
    "ould": 426,
    "sh": 1477,
    "this": 5661,
    "nt": 429,
    "ra": 2179,
    "pe": 613,
    "ight": 432,
    "art": 1242,
    "ment": 6229,
    "ust": 436,
    "end": 886,
    "--": 1377,
    "all": 477,
    "ack": 441,
    "ies": 444,
    "red": 2266,
    "ard": 33848,
    "âĢ": 564,
    "out": 503,
    "ear": 1027,
    "iv": 21628,
    "ally": 12525,
    "our": 674,
    "ost": 23619,
    "gh": 24997,
    "pt": 42975,
    "pl": 489,
    "ast": 6468,
    "can": 5171,
    "ak": 47594,
    "ome": 462,
    "ud": 463,
    "his": 14363,
    "do": 4598,
    "go": 2188,
    "has": 10134,
    "ge": 4903,
    "'t": 470,
    "rou": 13805,
    "sa": 11400,
    "but": 4360,
    "wor": 476,
    "ect": 46080,
    "ame": 480,
    "will": 10594,
    "ok": 12876,
    "whe": 12491,
    "they": 9930,
    "ide": 1405,
    "01": 5534,
    "ff": 31246,
    "ich": 488,
    "ther": 10811,
    "tr": 2213,
    "..": 11485,
    "int": 600,
    "ie": 37941,
    "ure": 495,
    "age": 2479,
    "ne": 710,
    "ial": 498,
    "ap": 2471,
    "ine": 500,
    "ice": 4771,
    "me": 1326,
    "ans": 9093,
    "one": 530,
    "ong": 506,
    "ions": 39270,
    "who": 8727,
    "up": 929,
    "their": 24571,
    "ated": 515,
    "ous": 516,
    "more": 3549,
    "ue": 518,
    "og": 519,
    "St": 1273,
    "ind": 773,
    "ike": 522,
    "so": 568,
    "ime": 524,
    "per": 583,
    ".\"": 22135,
    "ber": 18157,
    "iz": 528,
    "act": 719,
    "said": 30079,
    "your": 14108,
    "cc": 36624,
    "Th": 817,
    "cl": 565,
    "ep": 2462,
    "ake": 539,
    "able": 1498,
    "ip": 20966,
    "cont": 3642,
    "which": 4758,
    "ia": 544,
    "about": 10755,
    "were": 22474,
    "very": 845,
    "ub": 20967,
    "had": 18108,
    "comp": 5589,
    ",\"": 42911,
    "In": 818,
    "ire": 35918,
    "ace": 31506,
    "au": 35851,
    "ary": 560,
    "would": 19188,
    "ass": 840,
    "ry": 563,
    "ook": 566,
    "ere": 567,
    "ign": 3627,
    "ib": 24283,
    "off": 2364,
    "te": 660,
    "ven": 8710,
    "ile": 576,
    "ose": 577,
    "ite": 578,
    "orm": 579,
    "201": 1264,
    "man": 805,
    "other": 847,
    "ord": 2760,
    "ult": 3789,
    "been": 47436,
    "like": 2339,
    "ase": 589,
    "ance": 590,
    "ks": 591,
    "ays": 592,
    "own": 898,
    "ence": 594,
    "dis": 6381,
    "ction": 596,
    "any": 1092,
    "app": 1324,
    "sp": 2777,
    "ress": 601,
    "ations": 602,
    "ail": 31907,
    "ical": 605,
    "them": 18855,
    "ount": 608,
    "Ch": 1925,
    "there": 8117,
    "year": 1941,
    "av": 1196,
    "my": 1820,
    "some": 11246,
    "when": 12518,
    "ough": 619,
    "ach": 620,
    "than": 14813,
    "ru": 7422,
    "ond": 623,
    "ick": 624,
    "over": 2502,
    "vel": 11555,
    "ĊĊ": 628,
    "sc": 1416,
    "reat": 630,
    "ree": 631,
    "It": 1026,
    "ound": 633,
    "port": 2493,
    "also": 14508,
    "part": 3911,
    "fter": 637,
    "kn": 15418,
    "bec": 9423,
    "time": 2435,
    "ens": 3140,
    "ople": 643,
    "what": 10919,
    "no": 3919,
    "du": 7043,
    "mer": 4017,
    "ang": 3550,
    "new": 3605,
    "----": 13498,
    "get": 1136,
    "ory": 652,
    "ition": 653,
    "ings": 654,
    "just": 3137,
    "into": 20424,
    "ents": 658,
    "ove": 31471,
    "people": 15332,
    "pre": 3866,
    "its": 896,
    "rec": 8344,
    "tw": 4246,
    "ian": 666,
    "irst": 667,
    "ark": 668,
    "ors": 669,
    "work": 1818,
    "ade": 671,
    "ob": 909,
    "she": 7091,
    "wn": 675,
    "ink": 16882,
    "lic": 3476,
    "19": 1129,
    "He": 1544,
    "ish": 680,
    "nder": 681,
    "ause": 682,
    "him": 38400,
    "ons": 684,
    "form": 1296,
    "ild": 688,
    "ates": 689,
    "vers": 1646,
    "only": 8807,
    "oll": 692,
    "spe": 4125,
    "ck": 694,
    "ell": 30004,
    "amp": 20766,
    "acc": 4134,
    "bl": 2436,
    "ious": 699,
    "urn": 700,
    "ft": 10117,
    "ood": 702,
    "how": 4919,
    "hed": 16418,
    "after": 8499,
    "aw": 3253,
    "att": 1078,
    "ov": 19643,
    "play": 1759,
    "erv": 712,
    "ict": 713,
    "could": 24089,
    "itt": 715,
    "first": 11085,
    "ec": 9940,
    "hing": 722,
    "ual": 723,
    "ull": 724,
    "comm": 9503,
    "oy": 35104,
    "old": 1468,
    "ces": 728,
    "ater": 729,
    "fe": 5036,
    "bet": 11181,
    "iff": 733,
    "two": 11545,
    "ock": 735,
    "back": 1891,
    ").": 6739,
    "ident": 1852,
    "under": 4625,
    "rough": 5210,
    "sel": 741,
    "xt": 742,
    "may": 11261,
    "round": 2835,
    "po": 7501,
    "ph": 872,
    "iss": 1189,
    "des": 8906,
    "most": 1712,
    "did": 20839,
    "add": 2860,
    "ject": 752,
    "inc": 1939,
    "fore": 1674,
    "pol": 16104,
    "ont": 39585,
    "again": 17776,
    "clud": 758,
    "tern": 759,
    "know": 16275,
    "need": 31227,
    "cons": 5936,
    "co": 1073,
    "want": 42949,
    "see": 3826,
    "ning": 768,
    "iew": 769,
    "This": 1212,
    "ced": 771,
    "even": 10197,
    "ty": 1259,
    "We": 1135,
    "ath": 5782,
    "these": 27218,
    "pr": 1050,
    "use": 1904,
    "because": 13893,
    "fl": 2704,
    "ng": 23370,
    "now": 2197,
    "âĢĵ": 1906,
    "ise": 786,
    "make": 15883,
    "then": 8524,
    "ower": 789,
    "every": 16833,
    "Un": 3118,
    "sec": 2363,
    "oss": 793,
    "uch": 794,
    "Re": 3041,
    "ied": 798,
    "rit": 799,
    "inv": 16340,
    "lect": 11042,
    "supp": 18608,
    "ating": 803,
    "look": 5460,
    "pect": 806,
    "row": 5752,
    "bu": 11110,
    "where": 3003,
    "ific": 811,
    "years": 19002,
    "ily": 813,
    "diff": 26069,
    "should": 21754,
    "rem": 2787,
    "ev": 1990,
    "day": 1110,
    "'re": 821,
    "rib": 12183,
    "rel": 2411,
    "ss": 37786,
    "def": 4299,
    "right": 3506,
    "sy": 1837,
    "),": 10612,
    "les": 10287,
    "000": 12877,
    "hen": 30963,
    "through": 9579,
    "Tr": 2898,
    "__": 11593,
    "way": 1014,
    "don": 9099,
    "10": 940,
    "ased": 839,
    "ublic": 841,
    "reg": 2301,
    "And": 1870,
    "ix": 844,
    "includ": 846,
    "imp": 11011,
    "oth": 849,
    "sub": 7266,
    "âĢĶ": 960,
    "being": 11873,
    "arg": 1822,
    "Wh": 1199,
    "==": 6624,
    "ible": 856,
    "does": 22437,
    "ange": 858,
    "ram": 15770,
    "ert": 861,
    "ps": 26692,
    "ited": 863,
    "ational": 864,
    "br": 1671,
    "down": 2902,
    "many": 21834,
    "aking": 868,
    "call": 13345,
    "uring": 870,
    "ities": 871,
    "ics": 873,
    "als": 874,
    "dec": 12501,
    "ative": 876,
    "ener": 2400,
    "before": 19052,
    "ility": 879,
    "well": 4053,
    "much": 29482,
    "erson": 882,
    "those": 25591,
    "such": 10508,
    "But": 1537,
    "ason": 888,
    "ting": 889,
    "long": 6511,
    "ef": 891,
    "think": 14925,
    "ys": 893,
    "bel": 6667,
    "sm": 5796,
    "ax": 7877,
    "prov": 15234,
    "set": 2617,
    "ife": 901,
    "ments": 902,
    "ble": 7245,
    "ward": 15305,
    "show": 12860,
    "pres": 18302,
    "ms": 13845,
    "omet": 908,
    "say": 16706,
    "Sh": 2484,
    "ts": 40379,
    "ful": 46246,
    "eff": 14822,
    "gu": 5162,
    "inst": 8625,
    "und": 3318,
    "ren": 8851,
    "cess": 30173,
    "You": 1639,
    "good": 11274,
    "start": 9688,
    "ince": 924,
    "made": 9727,
    "tt": 926,
    "stem": 10717,
    "olog": 928,
    "ump": 931,
    "hel": 2978,
    "vern": 933,
    "ular": 934,
    "ually": 935,
    "mon": 2144,
    "last": 12957,
    "200": 2167,
    "stud": 19149,
    "ures": 942,
    "Ar": 3163,
    "self": 2116,
    "ars": 945,
    "meric": 946,
    "ues": 947,
    "cy": 3075,
    "min": 1084,
    "ollow": 950,
    "col": 4033,
    "io": 33245,
    "mod": 4666,
    "count": 9127,
    "Com": 5377,
    "hes": 10818,
    "fin": 15643,
    "air": 1633,
    "ier": 959,
    "read": 1100,
    "ank": 16553,
    "atch": 963,
    "ever": 1683,
    "str": 2536,
    "point": 4122,
    "ork": 967,
    "New": 3791,
    "sur": 11793,
    "ool": 970,
    "alk": 32915,
    "ement": 972,
    "used": 1484,
    "ract": 974,
    "ween": 975,
    "same": 31642,
    "oun": 16103,
    "Al": 2348,
    "ci": 979,
    "differe": 980,
    "while": 4514,
    "--------": 24200,
    "game": 6057,
    "cept": 984,
    "sim": 14323,
    "...": 2644,
    "inter": 3849,
    "ek": 988,
    "report": 13116,
    "produ": 18230,
    "still": 24219,
    "led": 2957,
    "ah": 29042,
    "here": 1456,
    "world": 6894,
    "though": 2016,
    "num": 22510,
    "arch": 3934,
    "imes": 999,
    "ale": 31341,
    "Se": 4653,
    "If": 1532,
    "//": 3373,
    "Le": 3123,
    "ret": 1186,
    "ref": 5420,
    "trans": 7645,
    "ner": 17156,
    "ution": 1009,
    "ters": 1010,
    "take": 20657,
    "Cl": 2601,
    "conf": 10414,
    "ave": 1015,
    "going": 5146,
    "sl": 6649,
    "ug": 1018,
    "Americ": 5477,
    "spec": 16684,
    "hand": 4993,
    "between": 23395,
    "ists": 1023,
    "De": 5005,
    "oot": 1025,
    "against": 32826,
    "high": 8929,
    "gan": 1030,
    "az": 35560,
    "ather": 1032,
    "exp": 11201,
    "ins": 1040,
    "gr": 2164,
    "help": 16794,
    "requ": 8897,
    "ets": 1039,
    "Pro": 2964,
    "ism": 1042,
    "found": 9275,
    "land": 1956,
    "ata": 1045,
    "uss": 1046,
    "ames": 1047,
    "person": 6259,
    "great": 18223,
    "sign": 12683,
    "An": 2025,
    "'ve": 1053,
    "somet": 1054,
    "ser": 2655,
    "hip": 10359,
    "run": 5143,
    "irect": 1060,
    "follow": 27780,
    "det": 15255,
    "ices": 1063,
    "find": 19796,
    "12": 1105,
    "mem": 11883,
    "cr": 6098,
    "ered": 1068,
    "ext": 2302,
    "uth": 1071,
    "ense": 1072,
    "team": 15097,
    "ving": 1075,
    "ouse": 1076,
    "ash": 12530,
    "ved": 1079,
    "system": 10057,
    "As": 1722,
    "der": 4587,
    "ives": 1083,
    "lead": 28230,
    "Bl": 3629,
    "cent": 1247,
    "around": 14145,
    "govern": 47866,
    "cur": 22019,
    "velop": 1091,
    "cour": 43220,
    "alth": 1094,
    "ages": 9337,
    "ize": 1096,
    "car": 7718,
    "ode": 1098,
    "law": 6270,
    "'m": 1101,
    "real": 5305,
    "support": 11284,
    "....": 19424,
    "really": 27485,
    "ness": 1108,
    "fact": 22584,
    "both": 16885,
    "ying": 1112,
    "serv": 3168,
    "For": 1890,
    "three": 15542,
    "wom": 1116,
    "med": 1150,
    "ody": 1118,
    "They": 2990,
    "50": 2026,
    "exper": 23100,
    "ton": 5680,
    "each": 27379,
    "akes": 1124,
    "che": 2395,
    "cre": 7513,
    "ines": 1127,
    "rep": 7856,
    "gg": 1130,
    "illion": 1131,
    "grou": 1132,
    "ute": 1133,
    "ik": 1134,
    "ER": 13793,
    "met": 4164,
    "says": 1139,
    "ox": 12018,
    "during": 42122,
    "ern": 1142,
    "ized": 1143,
    "ared": 1144,
    "fam": 44769,
    "ically": 1146,
    "happ": 1147,
    "Is": 3792,
    "char": 10641,
    "vent": 7435,
    "gener": 8612,
    "ient": 1153,
    "ple": 3339,
    "iet": 1155,
    "rent": 5602,
    "11": 1367,
    "ves": 1158,
    "ption": 1159,
    "20": 1238,
    "formation": 9978,
    "cor": 10215,
    "offic": 14406,
    "ield": 1164,
    "too": 18820,
    "ision": 1166,
    "inf": 10745,
    "oad": 1170,
    "public": 11377,
    "prog": 1172,
    "ric": 12410,
    "**": 12429,
    "war": 5767,
    "power": 6477,
    "view": 1570,
    "few": 32146,
    "loc": 17946,
    "different": 39799,
    "state": 5219,
    "head": 2256,
    "'ll": 1183,
    "poss": 1184,
    "stat": 14269,
    "ants": 27842,
    "val": 2100,
    "cle": 2375,
    "ivers": 1191,
    "anc": 1192,
    "expl": 20676,
    "another": 29214,
    "thing": 1517,
    "nce": 1198,
    "child": 9410,
    "since": 20777,
    "ired": 1202,
    "less": 1342,
    "life": 6042,
    "develop": 16244,
    "ittle": 1206,
    "dep": 10378,
    "pass": 6603,
    "ãĥ": 14524,
    "turn": 15344,
    "orn": 25322,
    "bers": 1213,
    "ross": 1214,
    "Ad": 2782,
    "fr": 8310,
    "resp": 4363,
    "second": 12227,
    "oh": 11752,
    "disc": 15410,
    "something": 18927,
    "comple": 1224,
    "fil": 10379,
    "month": 8424,
    "aj": 1228,
    "uc": 1229,
    "government": 14480,
    "without": 19419,
    "leg": 1455,
    "dist": 17080,
    "put": 1996,
    "quest": 6138,
    "ann": 1529,
    "prot": 11235,
    "never": 12081,
    "ience": 1240,
    "level": 5715,
    "things": 27971,
    "might": 44092,
    "effect": 10760,
    "contro": 1246,
    "18": 1507,
    "allow": 12154,
    "belie": 1250,
    "chool": 1251,
    "ott": 1252,
    "incre": 24988,
    "feel": 36410,
    "result": 20274,
    "lot": 26487,
    "fun": 12543,
    "ote": 1258,
    "erest": 1260,
    "contin": 18487,
    "using": 3500,
    "big": 14261,
    "ask": 2093,
    "best": 13466,
    "IN": 3268,
    "opp": 10365,
    "30": 1542,
    "number": 17618,
    "iness": 1272,
    "lease": 15278,
    "ca": 6888,
    "must": 27238,
    "direct": 12942,
    "gl": 4743,
    "open": 9654,
    "post": 7353,
    "come": 2958,
    "seem": 1283,
    "ording": 1284,
    "week": 10464,
    "ately": 1286,
    "ital": 46127,
    "riend": 1289,
    "far": 16370,
    "tra": 9535,
    "inal": 1292,
    "pri": 3448,
    "US": 2937,
    "place": 5372,
    "told": 44040,
    "\":": 1298,
    "ains": 1299,
    "ature": 1300,
    "Trump": 6170,
    "stand": 1481,
    "ider": 1304,
    "Fr": 6732,
    "next": 19545,
    "soc": 35634,
    "pur": 14225,
    "let": 1616,
    "little": 31629,
    "hum": 17047,
    "ron": 1313,
    "15": 1315,
    "commun": 10709,
    "mark": 4102,
    "There": 1858,
    "wr": 18351,
    "That": 2504,
    "information": 17018,
    "ways": 2842,
    "bus": 10885,
    "invest": 24859,
    "hard": 10424,
    "ained": 1328,
    "ead": 1329,
    "import": 11748,
    "appro": 21064,
    "test": 9288,
    "tri": 28461,
    "rest": 2118,
    "osed": 1335,
    "full": 12853,
    "care": 6651,
    "Sp": 4561,
    "case": 7442,
    "ON": 6177,
    "sk": 8135,
    "partic": 1344,
    "Pl": 3646,
    "ably": 1346,
    "uck": 1347,
    "ished": 1348,
    "chn": 1349,
    "list": 4868,
    "ator": 1352,
    "top": 4852,
    "adv": 32225,
    "Be": 3856,
    "ruct": 1356,
    "dem": 9536,
    "ration": 36535,
    "ling": 18459,
    "gy": 21486,
    "reen": 1361,
    "ger": 27602,
    "home": 11195,
    "left": 9464,
    "better": 27903,
    "data": 7890,
    "attack": 20358,
    "proble": 1369,
    "line": 1627,
    "ards": 1371,
    "beh": 20709,
    "ral": 1373,
    "How": 2437,
    "She": 3347,
    "arge": 1376,
    "://": 1378,
    "bro": 7957,
    "Ph": 2725,
    "ats": 1381,
    "build": 11249,
    "ww": 1383,
    "ided": 1384,
    "aim": 4031,
    "ases": 1386,
    "ency": 1387,
    "main": 12417,
    "ined": 1389,
    "including": 8201,
    "got": 23442,
    "interest": 9446,
    "keep": 14894,
    "eas": 30412,
    "aining": 1397,
    "class": 4871,
    "âĢ¦": 3926,
    "No": 2949,
    "var": 7785,
    "small": 17470,
    "ample": 23933,
    "AT": 5161,
    "So": 2396,
    "rece": 1407,
    "polit": 34470,
    "mov": 1409,
    "plan": 11578,
    "percent": 25067,
    "iving": 1412,
    "camp": 16544,
    "pay": 15577,
    "14": 1478,
    "ised": 1417,
    "unt": 2797,
    "oney": 1419,
    "ploy": 46945,
    "====": 1421,
    "didn": 45168,
    "Ind": 5497,
    "els": 1424,
    "ertain": 1425,
    "pos": 1930,
    "____": 1427,
    "iver": 1428,
    "process": 14681,
    "program": 23065,
    "ified": 1431,
    "Rep": 6207,
    "16": 1467,
    "uro": 1434,
    "ology": 1435,
    "atter": 1436,
    "ina": 1437,
    "name": 3672,
    "All": 3237,
    "four": 14337,
    "return": 7783,
    "vious": 1442,
    "bs": 1443,
    "called": 7174,
    "move": 21084,
    "Sc": 3351,
    "ird": 1447,
    "group": 8094,
    "bre": 4679,
    "men": 3653,
    "cap": 11128,
    "ten": 3478,
    "ee": 1453,
    "dri": 7553,
    "uthor": 1457,
    "pat": 8071,
    "current": 14421,
    "ides": 1460,
    "pop": 12924,
    "ention": 1463,
    "always": 33770,
    "mil": 25433,
    "women": 25878,
    "iven": 1469,
    "raph": 1470,
    "Or": 5574,
    "ror": 1472,
    "ently": 1473,
    "near": 40093,
    "Ex": 3109,
    "ream": 1476,
    "free": 5787,
    "ission": 1480,
    "Con": 3103,
    "ality": 1483,
    "13": 1511,
    "design": 26124,
    "change": 3803,
    "chang": 1488,
    "bo": 2127,
    "vis": 4703,
    "ember": 1491,
    "book": 2070,
    "ready": 3492,
    "kill": 12728,
    "25": 1679,
    "pped": 1496,
    "away": 8272,
    "country": 19315,
    "const": 9979,
    "arn": 1501,
    "order": 2875,
    "AR": 5923,
    "ior": 1504,
    "ium": 1505,
    "orth": 29617,
    "ailable": 1508,
    "sw": 2032,
    "million": 14100,
    "atic": 1512,
    "ted": 28501,
    "Go": 5247,
    "oper": 3575,
    "eng": 1786,
    "ajor": 1518,
    "conom": 1519,
    "Comm": 6935,
    "why": 22850,
    "ured": 1522,
    "ural": 1523,
    "school": 14347,
    "Mar": 7676,
    "aff": 2001,
    "days": 12545,
    "ush": 1530,
    "ane": 1531,
    "eg": 29206,
    "prof": 5577,
    "health": 13948,
    "outh": 1536,
    "ional": 1538,
    ".,": 1539,
    "sol": 34453,
    "already": 1541,
    "charact": 1543,
    "friend": 6726,
    "ES": 13380,
    "ians": 1547,
    "icle": 1548,
    "'d": 1549,
    "On": 2202,
    "least": 1551,
    "prom": 16963,
    "dr": 7109,
    "hist": 10034,
    "ither": 1555,
    "iqu": 1557,
    "17": 1596,
    "son": 3367,
    "tell": 33331,
    "talk": 16620,
    "ohn": 1562,
    "oint": 1563,
    "lection": 1564,
    "AN": 3537,
    "until": 28446,
    "augh": 1567,
    "later": 36760,
    "ending": 7464,
    "ived": 1572,
    "word": 4775,
    "ware": 16202,
    "cost": 15805,
    "enough": 48229,
    "give": 26535,
    "United": 17013,
    "techn": 23873,
    "arent": 1580,
    "OR": 6375,
    "par": 1845,
    "Dr": 6187,
    "2016": 5304,
    "rist": 1585,
    "ering": 1586,
    "large": 11664,
    "side": 1735,
    "acy": 1590,
    "ccess": 1591,
    "win": 5404,
    "important": 18049,
    "199": 19104,
    "doesn": 45084,
    "business": 22680,
    "clear": 20063,
    "rese": 1599,
    "\",": 33172,
    "ury": 1601,
    "equ": 4853,
    "aster": 18503,
    "alf": 1604,
    "American": 7437,
    "nect": 1606,
    "expect": 1607,
    "iversity": 1608,
    "occ": 13966,
    "Fl": 7414,
    "kind": 11031,
    "mean": 32604,
    "past": 30119,
    "dev": 7959,
    "bas": 12093,
    "raft": 31812,
    "organ": 9971,
    "del": 12381,
    "perform": 1620,
    "story": 13571,
    "season": 6230,
    "Col": 5216,
    "claim": 6604,
    "came": 1625,
    "within": 33479,
    "project": 16302,
    "At": 2953,
    "control": 13716,
    "ended": 4444,
    "Sy": 13940,
    "ization": 1634,
    "ley": 1636,
    "money": 26316,
    "idd": 1638,
    "family": 17989,
    "making": 8601,
    "bit": 2545,
    "police": 38191,
    "happen": 1645,
    "ony": 1647,
    "uff": 1648,
    "When": 2215,
    "sit": 48937,
    "ideo": 1651,
    "lf": 1652,
    "ison": 1653,
    "sure": 19532,
    "gin": 39733,
    "appear": 1656,
    "light": 2971,
    "water": 7050,
    "times": 22355,
    "grow": 45921,
    "company": 39722,
    "Te": 6767,
    "ows": 1666,
    "mar": 3876,
    "ource": 1668,
    "iol": 1669,
    "arm": 3211,
    "example": 20688,
    "conc": 1673,
    "To": 2514,
    "EN": 12964,
    "ries": 1678,
    "Can": 6090,
    "ney": 1681,
    "actually": 37739,
    "urity": 1684,
    "aken": 1685,
    "aps": 1686,
    "tax": 19290,
    "major": 22478,
    "ama": 1689,
    "often": 28950,
    "eral": 1691,
    "human": 10734,
    "job": 21858,
    "ister": 1694,
    "available": 15182,
    "ocr": 1696,
    "enn": 1697,
    "aid": 6133,
    "ivid": 1699,
    "record": 22105,
    "?\"": 1701,
    "sing": 12215,
    "Am": 5840,
    "idence": 1704,
    "news": 10827,
    "ster": 12504,
    "econom": 13926,
    "following": 1708,
    "Br": 9414,
    "ising": 1710,
    "hour": 9769,
    "ument": 1713,
    "sex": 8044,
    "desc": 20147,
    "become": 1716,
    "Ed": 7407,
    "took": 1718,
    "having": 40965,
    "product": 11167,
    "ault": 1721,
    "aring": 1723,
    "means": 1724,
    "hop": 8548,
    "une": 17809,
    "cho": 6679,
    "certain": 39239,
    "non": 13159,
    "deal": 31769,
    "24": 1987,
    "lement": 1732,
    "oci": 1733,
    "ene": 1734,
    "Pr": 6836,
    "May": 6747,
    "reason": 41181,
    "ued": 1739,
    "ched": 1740,
    "ulation": 1741,
    "elect": 9509,
    "official": 16841,
    "possible": 1744,
    "hold": 2946,
    "ands": 1746,
    "ots": 1747,
    "city": 19205,
    "ories": 1749,
    "sever": 28116,
    "children": 17197,
    "once": 27078,
    "activ": 15791,
    "ler": 1754,
    "night": 3847,
    "itions": 1756,
    "John": 7554,
    "ape": 43835,
    "done": 28060,
    "lim": 2475,
    "working": 16090,
    "Pres": 25460,
    "orld": 1764,
    "eb": 36649,
    "Co": 7222,
    "body": 2618,
    "ails": 1768,
    "utes": 1769,
    "Mr": 5246,
    "whether": 25356,
    "author": 9800,
    "rop": 1773,
    "proper": 1774,
    "seen": 15898,
    ");": 5619,
    "fac": 38942,
    "Su": 5606,
    "cond": 17561,
    "iting": 1780,
    "course": 17319,
    "----------------": 34400,
    "aign": 1784,
    "event": 15596,
    "pot": 13059,
    "intern": 23124,
    "iam": 1789,
    "short": 19509,
    "empt": 23909,
    "ãĤ": 17433,
    "God": 13482,
    "ilar": 1794,
    "80": 4019,
    "orig": 11612,
    "IS": 3180,
    "ourn": 1798,
    "ability": 2694,
    "itive": 1800,
    "dam": 11043,
    "100": 3064,
    "press": 8439,
    "doing": 19631,
    "protect": 35499,
    "ring": 5858,
    "thought": 28895,
    "question": 25652,
    "rew": 1809,
    "War": 13195,
    "several": 1811,
    "State": 9012,
    "given": 35569,
    "fund": 10990,
    "Tw": 5080,
    "went": 19963,
    "ances": 1817,
    "por": 16964,
    "40": 2319,
    "artment": 1823,
    "ustom": 1824,
    "polic": 1825,
    "meet": 47745,
    "creat": 20123,
    "22": 2534,
    "States": 42237,
    "games": 19966,
    "raw": 8246,
    "uture": 1832,
    "understand": 1833,
    "urs": 1834,
    "Ob": 5944,
    "lish": 1836,
    "makes": 49123,
    "won": 26502,
    "agon": 26990,
    "htt": 2804,
    "love": 23205,
    "ential": 1843,
    "complete": 20751,
    "Im": 3546,
    "AL": 8355,
    "account": 23317,
    "Âł": 5624,
    "ored": 1850,
    "vert": 9421,
    "2015": 4626,
    "others": 1854,
    "Min": 9452,
    "iber": 1856,
    "verage": 1857,
    "itional": 1859,
    "dd": 49427,
    "prob": 1861,
    "young": 35465,
    "along": 24176,
    "according": 38169,
    "yet": 25907,
    "members": 30814,
    "What": 2061,
    "oid": 1868,
    "Man": 5124,
    "among": 35131,
    "ai": 1872,
    "employ": 7033,
    "Res": 4965,
    "invol": 1876,
    "low": 9319,
    "af": 6580,
    "Car": 9914,
    "hig": 25196,
    "One": 3198,
    "Sec": 6558,
    "ination": 1883,
    "likely": 40798,
    "aged": 9722,
    "Russ": 10020,
    "ben": 11722,
    "rele": 1889,
    "Not": 3673,
    "president": 22540,
    "ball": 2613,
    "access": 15526,
    "ividual": 1896,
    "Dem": 11522,
    "Euro": 14398,
    "60": 3126,
    "known": 4002,
    "irl": 1901,
    "Gr": 8642,
    "early": 11458,
    "iety": 1905,
    "fight": 15481,
    "sent": 34086,
    "today": 40838,
    "market": 10728,
    "\".": 27071,
    "based": 3106,
    "strong": 11576,
    "urther": 1914,
    "deb": 11275,
    "mber": 1916,
    "problem": 45573,
    "death": 22595,
    "social": 14557,
    "imate": 1920,
    "AS": 7054,
    "ortun": 1922,
    "campaign": 35012,
    "ery": 1924,
    "ey": 2959,
    "ially": 1927,
    "mus": 14664,
    "saf": 49585,
    "months": 41537,
    "iron": 6953,
    "viol": 17069,
    "five": 13261,
    "stre": 22853,
    "players": 32399,
    "ald": 1940,
    "aun": 1942,
    "success": 13138,
    "present": 25579,
    "erence": 1945,
    "2014": 4967,
    "sugg": 1947,
    "particular": 1948,
    "try": 28311,
    "suggest": 47811,
    "Christ": 10684,
    "ones": 3392,
    "priv": 13776,
    "23": 2242,
    "crit": 22213,
    "local": 12001,
    "ify": 1958,
    "29": 2808,
    "aut": 2306,
    "ED": 8392,
    "Gu": 8205,
    "mult": 16680,
    "political": 23149,
    "asked": 1965,
    "former": 16354,
    "itter": 1967,
    "ript": 1968,
    "close": 19836,
    "pract": 29152,
    "York": 49278,
    "getting": 37210,
    "across": 1973,
    "comb": 24011,
    "believe": 1975,
    "toget": 1977,
    "together": 45525,
    "Cent": 19085,
    "irc": 1980,
    "individual": 43129,
    "Mc": 9742,
    "27": 2681,
    "isk": 1984,
    "Eng": 7936,
    "face": 2550,
    "value": 8367,
    "area": 20337,
    "writ": 8933,
    "President": 10364,
    "vot": 1993,
    "key": 2539,
    "mom": 32542,
    "anything": 49459,
    "experience": 1998,
    "attle": 1999,
    "mind": 10155,
    "omm": 2002,
    "future": 37443,
    "ged": 2004,
    "cut": 8968,
    "tot": 2006,
    "itch": 49700,
    "video": 15588,
    "investig": 2009,
    "net": 3262,
    "My": 3666,
    "rict": 2012,
    "ien": 2013,
    ".)": 46328,
    "impro": 32077,
    "wards": 32710,
    "connect": 8443,
    "Med": 9921,
    "selves": 40823,
    "ensive": 2021,
    "mb": 2022,
    "ober": 2023,
    "ators": 2024,
    "redu": 2027,
    "resent": 20315,
    "above": 29370,
    "fre": 19503,
    "Europe": 16112,
    "amount": 17287,
    "App": 4677,
    "either": 31336,
    "milit": 2036,
    "anal": 2037,
    "fail": 32165,
    "En": 4834,
    "ales": 2040,
    "special": 20887,
    "black": 13424,
    "IT": 7283,
    "cher": 21382,
    "looking": 11534,
    "fire": 6495,
    "yn": 2047,
    "almost": 28177,
    "oon": 2049,
    "study": 44517,
    "miss": 3927,
    "ches": 2052,
    "rown": 2053,
    "tre": 33945,
    "community": 28158,
    "media": 11431,
    "food": 19425,
    "comes": 8988,
    "University": 21009,
    "single": 29762,
    "uly": 2062,
    "half": 13959,
    "ague": 2064,
    "hod": 2065,
    "Republic": 15431,
    "started": 46981,
    "quick": 24209,
    "oto": 2069,
    "issue": 21949,
    "itor": 2072,
    "else": 17772,
    "consider": 44353,
    "26": 2608,
    "rodu": 2076,
    "taken": 2077,
    "28": 2579,
    "99": 7388,
    "With": 3152,
    "true": 7942,
    "wa": 10247,
    "trad": 2083,
    "ago": 3839,
    "mess": 37348,
    "ief": 2086,
    "added": 29373,
    "oke": 2088,
    "bad": 14774,
    "fav": 2090,
    "33": 4747,
    "similar": 38610,
    "Don": 3987,
    "character": 22769,
    "orts": 2096,
    "House": 18102,
    "reported": 26263,
    "type": 4906,
    "iod": 41080,
    "However": 4864,
    "targ": 2103,
    "entire": 2104,
    "pping": 2105,
    "history": 23569,
    "live": 12583,
    "ffic": 2108,
    "........": 20004,
    "ederal": 2110,
    "trying": 2111,
    "discuss": 2112,
    "Har": 13587,
    "aces": 2114,
    "lished": 2115,
    "osp": 2117,
    "room": 3823,
    "elt": 2120,
    "fall": 7207,
    "olution": 2122,
    "isn": 2125,
    "idea": 2126,
    "sound": 23661,
    "Dep": 12156,
    "someone": 46248,
    "cially": 2131,
    "ully": 2132,
    "foc": 2133,
    "object": 15252,
    "ift": 2135,
    "aper": 2136,
    "player": 7829,
    "rather": 34330,
    "service": 15271,
    "ashing": 2140,
    "Do": 5211,
    "Part": 7841,
    "rug": 14477,
    "ply": 35960,
    "mor": 4491,
    "nothing": 22366,
    "provide": 2148,
    "IC": 12460,
    "ung": 2150,
    "party": 10608,
    "exist": 38476,
    "mag": 19726,
    "70": 4317,
    "rul": 2155,
    "house": 4803,
    "behind": 42200,
    "however": 2158,
    "World": 10603,
    "sum": 16345,
    "applic": 2161,
    "function": 8818,
    "Pol": 8017,
    "front": 8534,
    "series": 25076,
    "tem": 11498,
    "typ": 28004,
    "ills": 2171,
    "opt": 8738,
    "points": 13033,
    "below": 35993,
    "itted": 2175,
    "specific": 11423,
    "2017": 5539,
    "umb": 20810,
    "previous": 2180,
    "pret": 5310,
    "reme": 2182,
    "custom": 23144,
    "court": 22230,
    "Me": 5308,
    "repl": 35666,
    "whole": 2187,
    "cer": 26074,
    "treat": 2190,
    "Act": 6398,
    "probably": 26949,
    "learn": 35720,
    "ender": 2194,
    "Ass": 8021,
    "version": 9641,
    "check": 9122,
    "Cal": 9771,
    "RE": 4526,
    "minist": 2201,
    "ources": 2203,
    "benef": 36934,
    "doc": 15390,
    "deter": 2206,
    "enc": 12685,
    "super": 16668,
    "address": 21975,
    "vict": 32433,
    "2013": 6390,
    "meas": 2212,
    "field": 3245,
    "signific": 2216,
    "uge": 2217,
    "feat": 27594,
    "common": 11321,
    "load": 3440,
    "begin": 27471,
    "bring": 48580,
    "action": 2673,
    "erman": 2224,
    "describ": 2225,
    "indust": 23213,
    "wanted": 2227,
    "ried": 2228,
    "ming": 42434,
    "attempt": 2230,
    "45": 4153,
    "fer": 11354,
    "due": 23301,
    "ression": 2234,
    "##": 22492,
    "shall": 49271,
    "six": 19412,
    "oo": 2238,
    "step": 9662,
    "pub": 12984,
    "himself": 2241,
    "cop": 22163,
    "dest": 16520,
    "stop": 11338,
    "AC": 7125,
    "ibility": 2247,
    "lab": 23912,
    "icult": 2249,
    "hours": 24425,
    "create": 17953,
    "further": 2252,
    "America": 18165,
    "City": 14941,
    "dou": 2255,
    "ST": 3563,
    "North": 14157,
    "cing": 2259,
    "national": 14648,
    "ule": 2261,
    "Inst": 6310,
    "taking": 26103,
    "Qu": 4507,
    "irt": 2265,
    "research": 34033,
    "viron": 2268,
    "Ge": 10082,
    "break": 9032,
    "ana": 44763,
    "space": 13200,
    "aterial": 2273,
    "recent": 49921,
    "Ab": 4826,
    "general": 24622,
    "hit": 17945,
    "period": 41007,
    "everything": 37814,
    "ively": 2280,
    "phys": 34411,
    "saying": 2282,
    "anks": 2283,
    "cou": 2284,
    "cult": 40820,
    "aced": 2286,
    "eal": 2287,
    "uation": 2288,
    "coun": 2289,
    "lu": 2290,
    "include": 17256,
    "position": 9150,
    "After": 3260,
    "Canad": 2294,
    "Em": 10161,
    "imm": 8608,
    "Red": 7738,
    "pick": 27729,
    "compl": 23855,
    "matter": 47635,
    "angu": 2303,
    "isc": 2304,
    "ole": 2305,
    "compet": 2307,
    "eed": 2308,
    "fect": 2309,
    "21": 2481,
    "Sen": 10445,
    "These": 4711,
    "asing": 2313,
    "cannot": 2314,
    "init": 15003,
    "relations": 39468,
    "ached": 2317,
    "bar": 5657,
    "TH": 4221,
    "2012": 6999,
    "vol": 10396,
    "ground": 2833,
    "security": 12961,
    "upd": 2325,
    "ilt": 2326,
    "35": 3439,
    "concern": 2328,
    "Just": 5703,
    "white": 11186,
    "seems": 2331,
    "Her": 9360,
    "pecially": 2333,
    "ients": 2334,
    "announ": 2335,
    "fig": 5647,
    "ights": 2337,
    "stri": 33565,
    "ids": 2340,
    "sus": 2341,
    "watch": 8340,
    "wind": 7972,
    "Cont": 4264,
    "itself": 2346,
    "mass": 22208,
    "yle": 2349,
    "ique": 2350,
    "National": 16186,
    "abs": 8937,
    "pack": 8002,
    "outside": 43435,
    "anim": 11227,
    "pain": 35436,
    "eter": 2357,
    "manag": 2358,
    "duct": 28494,
    "ogn": 2360,
    "Sept": 14635,
    "Jan": 12128,
    "foot": 5898,
    "ades": 2367,
    "third": 17089,
    "mot": 27926,
    "evidence": 46817,
    "inton": 2371,
    "threat": 19971,
    "apt": 15409,
    "ples": 2374,
    "lo": 5439,
    "decl": 32446,
    "item": 9186,
    "medi": 16957,
    "represent": 15603,
    "omb": 2381,
    "amer": 2382,
    "significant": 36591,
    "ograph": 2384,
    "cal": 9948,
    "ires": 2387,
    "0000": 17643,
    "ID": 4522,
    "AM": 3001,
    "simply": 2391,
    "longer": 2392,
    "file": 7753,
    "OT": 21676,
    "ateg": 2397,
    "org": 8745,
    "His": 6653,
    "dom": 3438,
    "upon": 27287,
    "ili": 2403,
    "\":\"": 2404,
    "themselves": 2405,
    "coming": 4976,
    "quite": 37121,
    "difficult": 2408,
    "Bar": 10374,
    "ilities": 2410,
    "ends": 5645,
    "cial": 2413,
    "64": 5598,
    "woman": 8580,
    "rap": 4095,
    "yr": 42635,
    "necess": 10789,
    "ips": 2419,
    "text": 5239,
    "require": 46115,
    "military": 33631,
    "review": 19023,
    "respons": 16733,
    "75": 5441,
    "subject": 32796,
    "instead": 38070,
    "issues": 37165,
    "gen": 5235,
    "\",\"": 2430,
    "minutes": 2431,
    "weap": 2432,
    "ray": 26842,
    "amed": 2434,
    "code": 8189,
    "Sm": 7556,
    "higher": 46503,
    "Ste": 7447,
    "ris": 6106,
    "page": 7700,
    "students": 2444,
    "Intern": 15865,
    "method": 24396,
    "Aug": 12512,
    "Per": 5990,
    "Ag": 10262,
    "policy": 30586,
    "Sw": 10462,
    "exec": 18558,
    "accept": 13635,
    "ume": 2454,
    "ribut": 2455,
    "words": 10879,
    "final": 20311,
    "changes": 36653,
    "Democr": 2459,
    "friends": 36154,
    "respect": 15008,
    "compan": 34390,
    "ivil": 2464,
    "damage": 28735,
    "****": 25998,
    "ogle": 2467,
    "vironment": 2468,
    "neg": 12480,
    "ental": 2470,
    "total": 23350,
    "ival": 2473,
    "!\"": 2474,
    "needs": 50032,
    "agre": 2477,
    "development": 31267,
    "iple": 2480,
    "results": 43420,
    "Af": 17584,
    "gun": 7145,
    "Obama": 15948,
    "roll": 4836,
    "rights": 28046,
    "Brit": 17959,
    "running": 20270,
    "wasn": 2492,
    "rate": 4873,
    "pretty": 37784,
    "target": 16793,
    "saw": 43439,
    "circ": 21170,
    "works": 5225,
    "icro": 2500,
    "alt": 5988,
    "www": 7324,
    "lier": 2505,
    "everyone": 47057,
    "ude": 2507,
    "pie": 21749,
    "iddle": 2509,
    "rael": 2510,
    "rad": 6335,
    "block": 9967,
    "walk": 11152,
    "ãģ": 23294,
    "nes": 2516,
    "Aust": 15160,
    "aul": 2518,
    "rote": 2519,
    "South": 14942,
    "ession": 2521,
    "oph": 2522,
    "shows": 49596,
    "site": 15654,
    "jo": 7639,
    "risk": 19121,
    "clus": 2527,
    "lt": 2528,
    "inj": 2529,
    "iding": 2530,
    "Spe": 5248,
    "chall": 36747,
    "irm": 2533,
    "itting": 2535,
    "hy": 12114,
    "LE": 12509,
    "began": 2540,
    "atur": 2541,
    "ashington": 2542,
    "lam": 30592,
    "Dav": 2544,
    "size": 7857,
    "Par": 10044,
    "38": 4353,
    "ournal": 2549,
    "decision": 2551,
    "larg": 15521,
    "jud": 10456,
    "rect": 13621,
    "continue": 43043,
    "Oct": 12349,
    "overed": 2557,
    "Int": 5317,
    "========": 2559,
    "parent": 8000,
    "Will": 8743,
    "easy": 38171,
    "drug": 30349,
    "anger": 8993,
    "sense": 33819,
    "di": 10989,
    "iday": 2567,
    "energy": 22554,
    "istic": 2569,
    "associ": 2570,
    "arter": 30675,
    "obal": 2572,
    "eks": 2573,
    "El": 9527,
    "urch": 2575,
    "girl": 15219,
    "oe": 2577,
    "itle": 2578,
    "Che": 7376,
    "request": 25927,
    "soon": 36194,
    "host": 4774,
    "ky": 2584,
    "states": 27219,
    "omes": 2586,
    "material": 33665,
    "lex": 31191,
    "moment": 2589,
    "answ": 2590,
    "onse": 2591,
    "especially": 16480,
    "norm": 27237,
    "services": 30416,
    "pite": 2595,
    "ran": 4966,
    "role": 18090,
    "44": 5846,
    "):": 15179,
    "cred": 2600,
    "________": 2602,
    "mat": 6759,
    "log": 6404,
    "Clinton": 16549,
    "OU": 47070,
    "office": 31810,
    "charg": 11121,
    "track": 11659,
    "ma": 17266,
    "heart": 11499,
    "personal": 22682,
    "building": 16894,
    "na": 12385,
    "Black": 9915,
    "increase": 2620,
    "itten": 2621,
    "needed": 27938,
    "36": 4570,
    "32": 3933,
    "=\"": 2625,
    "lost": 33224,
    "became": 2627,
    "groups": 24432,
    "Mus": 10694,
    "wrote": 42910,
    "Pe": 6435,
    "prop": 22930,
    "joy": 8716,
    "Ã©": 38251,
    "White": 12256,
    "dead": 25124,
    ".'": 2637,
    "http": 4023,
    "webs": 2639,
    "OS": 7294,
    "inside": 48787,
    "wrong": 36460,
    "statement": 26090,
    "yl": 2645,
    "film": 26240,
    "music": 28965,
    "share": 20077,
    "ification": 2649,
    "release": 20979,
    "forward": 11813,
    "stay": 31712,
    "comput": 2653,
    "itte": 2654,
    "original": 14986,
    "card": 9517,
    "cand": 46188,
    "div": 7146,
    "atural": 2660,
    "favor": 2661,
    "OM": 32468,
    "cases": 33964,
    "uses": 3544,
    "section": 5458,
    "leave": 47408,
    "ging": 2667,
    "oved": 2668,
    "Washington": 17402,
    "39": 5014,
    "Gl": 9861,
    "required": 35827,
    "apan": 2674,
    "oor": 2675,
    "iter": 11629,
    "King": 15708,
    "countries": 2678,
    "German": 16010,
    "lling": 2680,
    "34": 4974,
    "questions": 2683,
    "prim": 19795,
    "cell": 3846,
    "shoot": 30408,
    "anyone": 2687,
    "West": 15045,
    "affect": 2689,
    "epend": 2690,
    "online": 25119,
    "Israel": 14040,
    "September": 17543,
    "content": 11299,
    "ises": 2696,
    "reve": 36955,
    "laun": 38722,
    "indic": 2699,
    "force": 3174,
    "cast": 3350,
    "sold": 24120,
    "aving": 2703,
    "soft": 4215,
    "companies": 2706,
    "ceed": 2707,
    "article": 20205,
    "aud": 3885,
    "rev": 18218,
    "educ": 18123,
    "playing": 17916,
    "05": 8870,
    "held": 10217,
    "ctor": 2715,
    "released": 30147,
    "federal": 2717,
    "37": 5214,
    "administ": 39081,
    "interview": 2720,
    "install": 17350,
    "received": 47844,
    "source": 10459,
    "uk": 2724,
    "serious": 34009,
    "created": 25598,
    "cause": 25587,
    "immedi": 2729,
    "defin": 2730,
    "uel": 2731,
    "Department": 36261,
    "ctions": 2733,
    "Cour": 25877,
    "Now": 3844,
    "ze": 41271,
    "ites": 2737,
    "itution": 2738,
    "late": 17660,
    "speak": 47350,
    "ners": 2741,
    "legal": 18011,
    "ari": 2743,
    "Cor": 10606,
    "weeks": 2745,
    "model": 19849,
    "pred": 28764,
    "exact": 2748,
    "BC": 11843,
    "By": 3886,
    "ING": 2751,
    "osing": 2752,
    "takes": 2753,
    "regard": 2754,
    "opportun": 2755,
    "price": 20888,
    "198": 22337,
    "Apr": 13680,
    "fully": 3938,
    "problems": 2761,
    "ruction": 2762,
    "ham": 8891,
    "Count": 12332,
    "lege": 2765,
    "leaders": 37553,
    "ET": 12152,
    "lev": 23145,
    "deep": 22089,
    "ological": 2770,
    "ese": 2771,
    "haps": 2772,
    "Some": 4366,
    "pers": 19276,
    "contract": 28484,
    "relationship": 2776,
    "oud": 2778,
    "base": 8692,
    "48": 4764,
    "mit": 10255,
    "ancial": 2783,
    "consum": 2784,
    "potential": 2785,
    "langu": 2786,
    "eth": 4555,
    "relig": 2789,
    "ressed": 2790,
    "66": 7930,
    "link": 8726,
    "lower": 21037,
    "ayer": 2794,
    "June": 15749,
    "fem": 2796,
    "erc": 2798,
    "urd": 2799,
    "contact": 32057,
    "mother": 13552,
    "estab": 2803,
    "March": 16192,
    "Bro": 15783,
    "China": 14581,
    "squ": 16485,
    "provided": 41279,
    "average": 23913,
    "asons": 2812,
    "2011": 9804,
    "exam": 2814,
    "lin": 9493,
    "55": 5996,
    "ned": 2817,
    "perfect": 25833,
    "tou": 2819,
    "alse": 2820,
    "ux": 2821,
    "buy": 17846,
    "shot": 9442,
    "collect": 33327,
    "phot": 38611,
    "played": 21542,
    "surpr": 2827,
    "officials": 2828,
    "simple": 36439,
    "avy": 2830,
    "industry": 2831,
    "hands": 43365,
    "pull": 31216,
    "user": 7220,
    "range": 9521,
    "uary": 2838,
    "private": 19734,
    "ops": 39628,
    "ees": 2841,
    "Mich": 11180,
    "veh": 33892,
    "except": 16341,
    "terms": 38707,
    "imum": 2847,
    "pper": 2848,
    "ION": 2849,
    "ores": 2850,
    "Dragon": 17808,
    "oul": 2852,
    "den": 6559,
    "performance": 26585,
    "bill": 35546,
    "cil": 2856,
    "47": 6298,
    "environment": 38986,
    "exc": 41194,
    "worth": 9268,
    "pict": 18847,
    "chance": 39486,
    "2018": 7908,
    "bor": 2865,
    "speed": 12287,
    "iction": 2867,
    "alleg": 2868,
    "Japan": 16504,
    "atory": 2870,
    "reet": 2871,
    "match": 15699,
    "II": 3978,
    "stru": 19554,
    "ste": 4169,
    "living": 19950,
    "struct": 7249,
    "ino": 2879,
    "separ": 25512,
    "hern": 2881,
    "response": 26209,
    "enjoy": 2883,
    "via": 8869,
    "AD": 5984,
    "uments": 2886,
    "acebook": 2887,
    "member": 19522,
    "ibr": 2889,
    "izing": 2890,
    "tool": 25981,
    "Mon": 9069,
    "While": 3633,
    "hood": 14263,
    "Ang": 13450,
    "Def": 7469,
    "offer": 47895,
    "aur": 45714,
    "turned": 33886,
    "July": 16157,
    "anced": 2903,
    "recently": 2904,
    "Ear": 8419,
    "Star": 8248,
    "Cong": 18649,
    "rought": 2909,
    "blood": 18041,
    "hope": 2911,
    "comment": 23893,
    "aint": 2913,
    "arri": 2914,
    "iles": 2915,
    "particip": 48013,
    "ought": 10783,
    "ription": 2918,
    "08": 8487,
    "49": 5125,
    "gave": 2921,
    "select": 19738,
    "killed": 42130,
    "sych": 2924,
    "goes": 2925,
    "ij": 2926,
    "coll": 26000,
    "impact": 48240,
    "atives": 2929,
    "Ser": 7089,
    "09": 7769,
    "August": 17908,
    "boy": 7081,
    "Des": 5960,
    "felt": 31985,
    "expected": 40319,
    "image": 9060,
    "Mark": 9704,
    "ccording": 2941,
    "oice": 2942,
    "EC": 13182,
    "Mag": 13436,
    "ened": 2945,
    "Post": 6307,
    "prevent": 2948,
    "involved": 44697,
    "eyes": 48418,
    "quickly": 2952,
    "unk": 2954,
    "behav": 2955,
    "candid": 2960,
    "earlier": 2961,
    "focus": 37635,
    "ety": 2963,
    "ledge": 35614,
    "ixed": 2966,
    "illed": 2967,
    "popular": 47568,
    "AP": 3486,
    "sett": 17744,
    "various": 2972,
    "inks": 2973,
    "levels": 46170,
    "road": 6344,
    "ellig": 2976,
    "ables": 2977,
    "ittee": 2979,
    "Gener": 8645,
    "ype": 2981,
    "heard": 23636,
    "icles": 2983,
    "mis": 25413,
    "users": 18417,
    "San": 15017,
    "improve": 49453,
    "father": 11358,
    "search": 12947,
    "vil": 39796,
    "profess": 2992,
    "knew": 2993,
    "loss": 22462,
    "events": 31534,
    "65": 6135,
    "billion": 24540,
    "07": 8753,
    "02": 7816,
    "News": 9980,
    "cover": 9631,
    "ension": 3004,
    "bott": 10985,
    "areas": 3006,
    "ences": 3007,
    "ope": 3008,
    "Twitter": 14254,
    "ael": 3010,
    "gets": 11407,
    "Google": 11708,
    "sn": 16184,
    "iant": 3014,
    "vote": 27257,
    "nearly": 3016,
    "included": 3017,
    "recogn": 26243,
    "zz": 3019,
    "mm": 8085,
    "aled": 3021,
    "happened": 3022,
    "04": 8702,
    "hot": 8940,
    "whose": 38159,
    "civil": 37636,
    "suff": 37333,
    "oes": 3028,
    "itiz": 3029,
    "Syri": 3030,
    "respond": 5546,
    "hon": 24130,
    "features": 40890,
    "economic": 17079,
    "April": 16784,
    "rim": 20254,
    "technology": 45503,
    "option": 18076,
    "aging": 14736,
    "purch": 3040,
    "lat": 15460,
    "chie": 3043,
    "isl": 3044,
    "recomm": 47335,
    "uf": 3046,
    "training": 34409,
    "effects": 34435,
    "fast": 7217,
    "2010": 10333,
    "occur": 3051,
    "website": 3052,
    "email": 12888,
    "sens": 3054,
    "ech": 3055,
    "oil": 9437,
    "influ": 3057,
    "currently": 41745,
    "Sch": 14874,
    "Add": 4550,
    "goal": 35231,
    "scient": 25346,
    "conv": 42946,
    "emy": 3065,
    "decided": 3066,
    "travel": 35927,
    "mention": 3068,
    "LL": 27140,
    "03": 7643,
    "election": 14300,
    "phone": 4862,
    "looks": 3073,
    "situation": 3074,
    "hor": 17899,
    "bed": 3996,
    "Court": 36699,
    "aily": 3079,
    "aves": 3080,
    "quality": 13237,
    "Comp": 7293,
    "wise": 10787,
    "table": 11487,
    "staff": 28120,
    "Wind": 8731,
    "ett": 3087,
    "tried": 3088,
    "idered": 3089,
    "addition": 3090,
    "box": 3524,
    "lack": 3092,
    "arily": 3093,
    "wide": 4421,
    "mid": 13602,
    "board": 3526,
    "ysis": 3097,
    "anti": 17096,
    "dig": 12894,
    "ening": 3101,
    "dro": 22285,
    "68": 8257,
    "slow": 38246,
    "sequ": 4726,
    "path": 6978,
    "aker": 3110,
    "worked": 32931,
    "pen": 3617,
    "engine": 18392,
    "looked": 3114,
    "Super": 12442,
    "Serv": 11838,
    "victim": 3117,
    "property": 26745,
    "introdu": 27427,
    "execut": 3121,
    "PM": 5868,
    "color": 8043,
    "More": 5167,
    "network": 27349,
    "date": 4475,
    "cul": 10845,
    "idge": 3130,
    "extra": 26086,
    "31": 3261,
    "sle": 26738,
    "67": 8275,
    "wond": 3135,
    "reports": 48922,
    "Austral": 19763,
    "capital": 27544,
    "command": 21812,
    "allowed": 40845,
    "prep": 46012,
    "capt": 27144,
    "hib": 3145,
    "numbers": 3146,
    "chan": 3147,
    "fair": 22043,
    "mp": 29034,
    "oms": 3150,
    "reach": 16250,
    "tain": 3153,
    "broad": 36654,
    "couple": 3155,
    "ecause": 3156,
    "lying": 9105,
    "Feb": 15146,
    "screen": 9612,
    "lives": 3160,
    "prior": 3161,
    "Congress": 25916,
    "approach": 3164,
    "emer": 24677,
    "aries": 3166,
    "Dis": 7279,
    "Ne": 8199,
    "built": 18780,
    "cies": 3171,
    "repe": 45956,
    "rules": 38785,
    "Pal": 11531,
    "financial": 46921,
    "considered": 3177,
    "Char": 12441,
    "nces": 3179,
    "brought": 3181,
    "bi": 8482,
    "iers": 3183,
    "Sim": 8890,
    "OP": 13349,
    "products": 29498,
    "visit": 3187,
    "document": 22897,
    "conduct": 36495,
    "completely": 46699,
    "ining": 3191,
    "Calif": 19619,
    "ibly": 3193,
    "written": 15266,
    "TV": 6849,
    "ements": 3196,
    "draw": 19334,
    "published": 30271,
    "secret": 21078,
    "rain": 6290,
    "het": 3202,
    "Facebook": 12025,
    "onday": 3204,
    "Up": 4933,
    "sexual": 18338,
    "thous": 3207,
    "Pat": 12130,
    "standard": 20307,
    "ges": 3212,
    "ection": 3213,
    "fell": 23299,
    "foreign": 38823,
    "ani": 3216,
    "Friday": 20610,
    "regular": 16338,
    "inary": 3219,
    "increased": 3220,
    "usually": 23073,
    "demon": 26567,
    "dark": 21953,
    "additional": 3224,
    "rol": 3225,
    "Of": 5189,
    "production": 25493,
    "!!": 37867,
    "undred": 3229,
    "international": 45609,
    "idents": 3231,
    "Free": 11146,
    "roup": 3233,
    "race": 16740,
    "mach": 3235,
    "huge": 40878,
    "lear": 22454,
    "ovember": 3239,
    "town": 12735,
    "attention": 3241,
    "Off": 9362,
    "yond": 3243,
    "Then": 6423,
    "terror": 14007,
    "raz": 3247,
    "Bo": 16635,
    "meeting": 3249,
    "Park": 25478,
    "arrest": 3251,
    "fear": 3252,
    "Val": 7762,
    "oring": 3255,
    "',": 46083,
    "extreme": 29896,
    "arr": 5240,
    "workers": 22896,
    "ament": 3263,
    "directly": 3264,
    "population": 39748,
    "ube": 3266,
    "October": 18517,
    "January": 21339,
    "59": 7863,
    "David": 11006,
    "cross": 19692,
    "cember": 3273,
    "First": 5962,
    "message": 20500,
    "irit": 3276,
    "nation": 25729,
    "poll": 30393,
    "isions": 3279,
    "answer": 41484,
    "ny": 3281,
    "isode": 3282,
    "carry": 34993,
    "Russia": 16347,
    "hear": 3285,
    "ength": 3286,
    "roy": 10611,
    "natural": 11802,
    "inally": 3289,
    "dog": 9703,
    "mitted": 3291,
    "trade": 25351,
    "subst": 3293,
    "multiple": 48101,
    "Afric": 3295,
    "fans": 3296,
    "sort": 30619,
    "global": 20541,
    "ication": 3299,
    "Wed": 19864,
    "ara": 3301,
    "achie": 3302,
    "language": 16129,
    "vey": 3304,
    "tal": 39240,
    "necessary": 49986,
    "details": 36604,
    "sen": 6248,
    "Sund": 20602,
    "Reg": 8081,
    "Rec": 6690,
    "06": 9130,
    "sil": 18217,
    "ressive": 3314,
    "medical": 41693,
    "unch": 16258,
    "ornia": 3317,
    "fort": 6285,
    "ocks": 3320,
    "Monday": 23810,
    "uesday": 3322,
    "craft": 5977,
    "77": 8541,
    "urt": 3325,
    "Hill": 36369,
    "receive": 3328,
    "morning": 43911,
    "estern": 3330,
    "bank": 17796,
    "sat": 49720,
    "irth": 3333,
    "High": 11922,
    "device": 25202,
    "THE": 10970,
    "Center": 23656,
    "safe": 21230,
    "Canada": 17940,
    "systems": 3341,
    "assist": 3342,
    "surv": 48846,
    "battle": 38471,
    "Soc": 37949,
    "vertis": 3346,
    "paper": 20189,
    "growth": 27922,
    "plans": 3352,
    "lled": 3353,
    "parts": 42632,
    "wall": 11930,
    "movement": 3356,
    "practice": 39541,
    "imately": 3358,
    "display": 13812,
    "sometimes": 29810,
    "omp": 3361,
    "Paul": 12041,
    "Yes": 5297,
    "king": 5822,
    "58": 7618,
    "oly": 3366,
    "avoid": 27080,
    "okes": 3369,
    "Jew": 23119,
    "towards": 3371,
    "asc": 10570,
    "Kore": 3374,
    "talking": 48186,
    "correct": 30283,
    "spent": 3377,
    "icks": 3378,
    "iable": 3379,
    "eared": 3380,
    "term": 4354,
    "wants": 3382,
    "oming": 3383,
    "doub": 3385,
    "forces": 27087,
    "please": 29688,
    "69": 8644,
    "November": 21159,
    "atform": 3390,
    "ondon": 3391,
    "immediately": 3393,
    "Russian": 16220,
    "Met": 9171,
    "deg": 13500,
    "parents": 23743,
    "CH": 5870,
    "Americans": 17636,
    "aly": 3400,
    "Mod": 5841,
    "shown": 42579,
    "conditions": 3403,
    "stuff": 41094,
    "reb": 34806,
    "Your": 7120,
    "includes": 42813,
    "nown": 3408,
    "Sam": 16305,
    "experien": 3410,
    "mission": 4365,
    "Even": 6104,
    "aught": 3413,
    "announced": 43499,
    "Republican": 25777,
    "determin": 3416,
    "described": 34869,
    "County": 3418,
    "()": 7499,
    "door": 9424,
    "changed": 40985,
    "neigh": 3422,
    "Here": 4342,
    "clean": 27773,
    "pan": 6839,
    "December": 20588,
    "European": 22030,
    "iring": 3428,
    "apter": 3429,
    "club": 18664,
    "Tuesday": 26133,
    "paid": 20333,
    "Net": 7934,
    "attacks": 38458,
    "characters": 3435,
    "alone": 17749,
    "director": 35248,
    "rout": 3441,
    "California": 25284,
    "finally": 3443,
    "rac": 11510,
    "contr": 3445,
    "exactly": 3446,
    "resh": 27179,
    "Islam": 16991,
    "nature": 21353,
    "career": 3451,
    "latest": 42861,
    "convers": 3453,
    "Sl": 11122,
    "pose": 12705,
    "cient": 3456,
    "Inc": 25517,
    "ivity": 3458,
    "88": 9193,
    "Att": 8086,
    "Mor": 20044,
    "nesday": 3462,
    "weight": 6551,
    "ken": 3464,
    "note": 11295,
    "teams": 3466,
    "airs": 37112,
    "Green": 13719,
    "hundred": 3470,
    "onent": 3471,
    "streng": 3472,
    "consist": 3473,
    "icated": 3474,
    "regul": 3475,
    "astic": 3477,
    "ursday": 3479,
    "elligence": 3480,
    "ously": 3481,
    "UK": 15039,
    "BI": 20068,
    "costs": 3484,
    "independ": 3485,
    "normal": 11265,
    "hom": 26452,
    "obvious": 3489,
    "swe": 46280,
    "star": 7364,
    "acher": 3493,
    "implement": 3494,
    "gest": 10521,
    "song": 34050,
    "Get": 3855,
    "Lab": 17822,
    "interesting": 47914,
    "giving": 13992,
    "Sunday": 21934,
    "etc": 14784,
    "middle": 27171,
    "remember": 38947,
    "osition": 3507,
    "utions": 3508,
    "max": 9806,
    "46": 6337,
    "yourself": 3511,
    "demand": 28550,
    "treatment": 42487,
    "danger": 38537,
    "Cons": 9444,
    "guy": 22932,
    "British": 25631,
    "physical": 42854,
    "related": 5363,
    "remain": 3520,
    "couldn": 3521,
    "refer": 3522,
    "citiz": 3523,
    "ENT": 47353,
    "inn": 3732,
    "IG": 35336,
    "ero": 3529,
    "Street": 34356,
    "ospital": 3531,
    "rench": 3532,
    "chers": 3533,
    "stra": 12044,
    "OL": 22258,
    "ager": 3536,
    "easily": 3538,
    "IA": 35229,
    "enge": 3540,
    "iny": 3541,
    "clos": 3542,
    "ocked": 3543,
    "Coun": 31053,
    "uild": 3547,
    "??": 19153,
    "write": 13564,
    "olute": 3552,
    "57": 7632,
    "leader": 27940,
    "reading": 25782,
    "</": 7359,
    "autom": 3557,
    "ests": 3558,
    "43": 5946,
    "legisl": 3560,
    "Gold": 13306,
    "designed": 30473,
    "Leg": 11484,
    "ares": 3565,
    "beaut": 40544,
    "Tex": 17005,
    "appears": 3568,
    "strugg": 3569,
    "Rom": 22834,
    "choice": 25541,
    "particularly": 31722,
    "From": 4863,
    "London": 23421,
    "anned": 3577,
    "allows": 47205,
    "obile": 3579,
    "difference": 3580,
    "âĢ¢": 5595,
    "View": 7680,
    "Wednesday": 27150,
    "although": 16670,
    "relative": 43762,
    "application": 31438,
    "atever": 3587,
    "aren": 5757,
    "myself": 3589,
    "imag": 48466,
    "dise": 3591,
    "society": 3592,
    "frequ": 3593,
    "English": 15823,
    "poor": 36672,
    "Day": 12393,
    "writing": 16502,
    "seven": 26548,
    "starting": 38690,
    "bud": 3600,
    "print": 4798,
    "Trans": 8291,
    "ufact": 3603,
    "Stud": 13007,
    "crim": 50086,
    "gives": 3607,
    "cool": 24494,
    "ae": 3609,
    "iance": 3610,
    "General": 12218,
    "thinking": 28973,
    "save": 21928,
    "limited": 10698,
    "Party": 33553,
    "meaning": 24815,
    "owers": 3618,
    "Jack": 14295,
    "EM": 17228,
    "nice": 44460,
    "rupt": 31580,
    "gas": 22649,
    "eight": 26022,
    "feet": 39690,
    "effort": 3626,
    "icit": 3628,
    "coin": 10752,
    "opin": 3631,
    "brain": 27825,
    "hest": 3634,
    "Thursday": 25381,
    "wouldn": 3636,
    "aughter": 3637,
    "touch": 29332,
    "lements": 3639,
    "studies": 3640,
    "center": 16159,
    "orge": 3643,
    "computer": 33215,
    "investigation": 3645,
    "orks": 3647,
    "2008": 11528,
    "increasing": 42647,
    "store": 8095,
    "comments": 15944,
    "bal": 6893,
    "doll": 3654,
    "liber": 33203,
    "wife": 22095,
    "laws": 29317,
    "aturday": 3658,
    "itness": 3659,
    "modern": 23922,
    "Sk": 15739,
    "administration": 3662,
    "opportunity": 3663,
    "sal": 21680,
    "powerful": 44548,
    "claims": 3667,
    "Earth": 22840,
    "ords": 3669,
    "title": 7839,
    "esc": 3798,
    "omen": 3674,
    "beyond": 3675,
    "camer": 3676,
    "sell": 7255,
    "itute": 3678,
    "earch": 3679,
    "appl": 3680,
    "iment": 3681,
    "42": 5433,
    "Art": 8001,
    "unf": 3684,
    "violence": 37502,
    "urg": 3686,
    "East": 25234,
    "compared": 3688,
    "options": 25811,
    "throughout": 3690,
    "vs": 14259,
    "igr": 3692,
    ".[": 3693,
    "aches": 3694,
    "78": 8699,
    "files": 16624,
    "FL": 9977,
    "EL": 17852,
    "arian": 3699,
    "James": 14731,
    "Air": 16170,
    "anch": 12619,
    "detail": 49170,
    "piece": 12239,
    "PS": 6599,
    "named": 13190,
    "education": 40796,
    "drive": 19472,
    "items": 23814,
    "student": 50139,
    "iced": 3711,
    "::": 7904,
    "ico": 3713,
    "throw": 16939,
    "scene": 29734,
    "complex": 41887,
    "2009": 10531,
    "prec": 3718,
    "Bre": 12679,
    "79": 9225,
    "concept": 43169,
    "status": 13376,
    "aming": 3723,
    "died": 3724,
    "knowledge": 45066,
    "beginning": 3726,
    "OD": 31245,
    "ruary": 3728,
    "certainly": 3729,
    "guys": 3730,
    "slight": 3731,
    "ounds": 3733,
    "fine": 38125,
    "fat": 17359,
    "ications": 3736,
    "perhaps": 28998,
    "Ant": 13217,
    "income": 12519,
    "https": 5450,
    "majority": 35839,
    "ports": 14090,
    "ston": 3743,
    "greater": 3744,
    "feed": 12363,
    "entially": 3746,
    "safety": 44708,
    "unique": 34642,
    "andom": 3749,
    "gone": 21260,
    "showed": 3751,
    "histor": 3752,
    "counter": 24588,
    "ius": 3754,
    "ida": 3755,
    "leading": 12294,
    "ipe": 3757,
    "send": 21280,
    "Donald": 7371,
    "erve": 3760,
    "defense": 19774,
    "inese": 3762,
    "yes": 8505,
    "Fire": 13543,
    "Muslim": 17067,
    "raq": 3766,
    "continued": 3767,
    "osh": 3768,
    "provides": 3769,
    "prison": 35156,
    "Pre": 6719,
    "happy": 34191,
    "economy": 3773,
    "trust": 38087,
    "ags": 3775,
    "Game": 8777,
    "weapons": 33999,
    "uman": 3778,
    "Cle": 34349,
    "itation": 3780,
    "analysis": 20930,
    "Times": 28595,
    "science": 16801,
    "->": 4613,
    "figure": 26875,
    "disapp": 3786,
    "enty": 3787,
    "software": 43776,
    "officers": 3790,
    "remains": 3793,
    "India": 21569,
    "psych": 23947,
    "rief": 3796,
    "cat": 9246,
    "observ": 3799,
    "stage": 14247,
    "Dark": 17367,
    "enter": 9255,
    "passed": 3804,
    "despite": 41081,
    "Out": 7975,
    "movie": 41364,
    "rs": 44608,
    "voice": 38888,
    "mine": 6164,
    "Play": 11002,
    "toward": 3812,
    "Ter": 15156,
    "region": 36996,
    "values": 27160,
    "orters": 3816,
    "mount": 14948,
    "officer": 3818,
    "Other": 6395,
    "ban": 3958,
    "hous": 3821,
    "wood": 4898,
    "IV": 8363,
    "Sun": 16012,
    "Over": 5886,
    "rog": 47524,
    "90": 4101,
    "lay": 10724,
    "Tur": 17483,
    "awn": 3832,
    "pressure": 36151,
    "Sub": 7004,
    "books": 12106,
    "edom": 3836,
    "Sand": 18471,
    "AA": 15923,
    "reasons": 3840,
    "ford": 3841,
    "activity": 21797,
    "UT": 19255,
    "Senate": 32998,
    "calls": 3848,
    "letter": 9291,
    "Rob": 14350,
    "Je": 40932,
    "choose": 3853,
    "Law": 16966,
    "rob": 22609,
    "types": 19199,
    "platform": 24254,
    "quarter": 24385,
    "RA": 17926,
    "Time": 7575,
    "maybe": 25991,
    "Cr": 13916,
    "95": 6957,
    "moving": 31462,
    "lif": 36195,
    "gold": 24267,
    "som": 3870,
    "patients": 3871,
    "truth": 35310,
    "Ke": 8896,
    "urance": 3874,
    "antly": 3875,
    "charge": 10136,
    "Great": 13681,
    "cele": 49840,
    "--------------------------------": 20368,
    "rock": 10823,
    "roid": 3882,
    "ancy": 3883,
    "credit": 43082,
    "Every": 6109,
    "moved": 3888,
    "inger": 3889,
    "ribution": 3890,
    "names": 14933,
    "straight": 42729,
    "Health": 18081,
    "Well": 5779,
    "feature": 30053,
    "rule": 25135,
    "sche": 15952,
    "inated": 3898,
    "Michael": 13256,
    "berg": 3900,
    "41": 6073,
    "iled": 3902,
    "band": 4097,
    "click": 12976,
    "Angel": 33246,
    "onents": 3906,
    "ÂŃ": 22020,
    "Iraq": 31206,
    "Saturday": 19844,
    "aware": 9685,
    "pattern": 33279,
    "OW": 47210,
    "Let": 5756,
    "grad": 9744,
    "igned": 3916,
    "associated": 32852,
    "style": 7635,
    "iation": 3920,
    "aith": 3921,
    "ilies": 3922,
    "stories": 50164,
    "uration": 3924,
    "individuals": 3925,
    "Associ": 3928,
    "ishing": 3929,
    "aby": 3930,
    "summer": 3931,
    "Ben": 11696,
    "uty": 3935,
    "Texas": 21607,
    "hol": 6039,
    "mill": 17805,
    "followed": 3940,
    "Bill": 17798,
    "Indian": 30821,
    "Secret": 23725,
    "Bel": 12193,
    "February": 21816,
    "jobs": 43863,
    "seemed": 3947,
    "Govern": 29168,
    "ipped": 3949,
    "reality": 46290,
    "lines": 6615,
    "park": 20928,
    "measure": 3953,
    "Our": 5122,
    "IM": 8959,
    "brother": 37343,
    "growing": 25167,
    "estim": 3959,
    "cry": 20470,
    "School": 26130,
    "mechan": 3962,
    "OF": 19238,
    "Windows": 11209,
    "rates": 9700,
    "Oh": 5812,
    "positive": 24561,
    "culture": 25584,
    "istics": 3969,
    "ica": 3970,
    "har": 9869,
    "ya": 21349,
    "itely": 3973,
    "ipp": 3974,
    "map": 8899,
    "encies": 3976,
    "William": 17121,
    "akers": 3979,
    "56": 7265,
    "Mart": 13143,
    "Rem": 8413,
    "altern": 33645,
    "itude": 3984,
    "coach": 3985,
    "rowd": 3986,
    "kids": 45235,
    "journal": 24891,
    "corpor": 3990,
    "false": 9562,
    "web": 12384,
    "sleep": 42832,
    "contain": 3994,
    "sto": 3995,
    "iverse": 3997,
    "Rich": 14868,
    "Chinese": 23604,
    "pun": 35512,
    "meant": 4001,
    "notice": 42138,
    "favorite": 35200,
    "aven": 27968,
    "condition": 31448,
    "purpose": 29983,
    "))": 15306,
    "organization": 4009,
    "challeng": 4010,
    "manufact": 48119,
    "susp": 40409,
    "Ac": 12832,
    "critic": 4014,
    "unes": 4015,
    "uclear": 4016,
    "vention": 4018,
    "mist": 37980,
    "Us": 5842,
    "Tor": 15884,
    "olf": 4024,
    "larger": 4025,
    "advant": 13461,
    "resear": 4027,
    "actions": 4658,
    "ml": 25962,
    "kept": 45089,
    ",'": 4032,
    "benefits": 4034,
    "ifying": 4035,
    "actual": 50039,
    "International": 24274,
    "vehicle": 4038,
    "chief": 17351,
    "efforts": 4040,
    "League": 24623,
    "Most": 6943,
    "wait": 17077,
    "adult": 49922,
    "overall": 4045,
    "speech": 45862,
    "highly": 47444,
    "female": 24724,
    "error": 18224,
    "effective": 16803,
    "54": 7175,
    "encour": 4052,
    "failed": 47904,
    "conserv": 38925,
    "programs": 4056,
    "trou": 4057,
    "ahead": 38204,
    "500": 5323,
    "vertisement": 4060,
    "IP": 6101,
    "Found": 21077,
    "pir": 12276,
    "crime": 28126,
    "ander": 4066,
    "location": 24886,
    "Iran": 23798,
    "behavior": 46571,
    "azing": 4070,
    "rare": 4071,
    "emb": 24419,
    "caused": 4073,
    "ship": 6720,
    "active": 5275,
    "contribut": 4076,
    "green": 14809,
    "acqu": 43561,
    "reflect": 35051,
    "venue": 14359,
    "firm": 4081,
    "birth": 24280,
    "].": 20740,
    "clearly": 4084,
    "emot": 4085,
    "agency": 40955,
    "riage": 4087,
    "memory": 31673,
    "98": 9661,
    "SA": 14719,
    "See": 6214,
    "acing": 4092,
    "CC": 12624,
    "biggest": 4094,
    "basic": 35487,
    "eat": 4483,
    "suspect": 4099,
    "Mac": 14155,
    "istan": 4103,
    "spread": 43639,
    "ams": 4105,
    "ki": 47748,
    "asy": 4107,
    "rav": 24343,
    "Rober": 15924,
    "demonstr": 4110,
    "rated": 13178,
    "absolute": 48546,
    "places": 23625,
    "impl": 23928,
    "ibrary": 4115,
    "cards": 27761,
    "destroy": 41659,
    "virt": 48940,
    "vere": 4119,
    "appeared": 4120,
    "yan": 4121,
    "beg": 4123,
    "temper": 4124,
    "anted": 4126,
    "ears": 11368,
    "Direct": 13470,
    "length": 13664,
    "blog": 14036,
    "amb": 4915,
    "integ": 18908,
    "resources": 37540,
    "iful": 4135,
    "spot": 20485,
    "forced": 12072,
    "thousands": 4138,
    "Minister": 4139,
    "qual": 13255,
    "French": 24111,
    "atically": 4142,
    "generally": 4143,
    "drink": 4144,
    "thus": 26239,
    "IL": 14639,
    "odes": 4147,
    "appropri": 11488,
    "Read": 5569,
    "whom": 4150,
    "eye": 25379,
    "college": 44107,
    "irection": 4154,
    "ensure": 4155,
    "apparent": 4156,
    "iders": 4157,
    "religious": 27626,
    "minor": 4159,
    "olic": 4160,
    "tro": 23528,
    "Why": 5195,
    "ribute": 4163,
    "primary": 39754,
    "developed": 33082,
    "peace": 22988,
    "skin": 20407,
    "ava": 4170,
    "blue": 17585,
    "families": 4172,
    "apply": 39014,
    "inform": 4175,
    "Smith": 17919,
    "CT": 16356,
    "ii": 21065,
    "limit": 32374,
    "resist": 35119,
    "................": 44713,
    "umn": 4182,
    "conflic": 4183,
    "twe": 4184,
    "udd": 4185,
    "Tom": 13787,
    "liter": 17201,
    "que": 8358,
    "bon": 5351,
    "hair": 27108,
    "eventually": 4191,
    "pus": 4192,
    "helped": 4193,
    "agg": 9460,
    "orney": 4195,
    "Apple": 16108,
    "fit": 11147,
    "Sur": 14214,
    "prem": 31605,
    "sales": 4200,
    "seconds": 43012,
    "strength": 41402,
    "feeling": 4203,
    "¿½": 4204,
    "tour": 4205,
    "knows": 4206,
    "oom": 4207,
    "exerc": 4208,
    "somew": 4209,
    "ï¿½": 20543,
    ">>": 9609,
    "spokes": 4212,
    "ideas": 4213,
    "regist": 4214,
    "Del": 13856,
    "PC": 5662,
    "propos": 4218,
    "launch": 35681,
    "bottom": 22487,
    "Please": 5492,
    "vest": 19750,
    "itz": 4224,
    "Inter": 9492,
    "script": 12048,
    "rat": 10366,
    "arning": 4228,
    "Jer": 36134,
    "Are": 8491,
    "whatever": 39664,
    "oken": 4233,
    "cience": 4234,
    "mode": 14171,
    "agree": 49221,
    "sources": 4237,
    "initial": 36733,
    "restrict": 4239,
    "wonder": 4240,
    "usion": 4241,
    "####": 4242,
    "Sil": 15086,
    "ville": 4244,
    "burn": 10899,
    "asion": 4247,
    "Â£": 14988,
    "nor": 13099,
    "uing": 4250,
    "reached": 4251,
    "sun": 19155,
    "categ": 4253,
    "igration": 4254,
    "cook": 27916,
    "promot": 4256,
    "male": 22606,
    "climate": 42570,
    "fix": 13049,
    "alleged": 4260,
    "UR": 37902,
    "alled": 4262,
    "images": 17566,
    "ota": 4265,
    "schools": 4266,
    "ios": 4267,
    "drop": 14781,
    "stream": 5532,
    "Mo": 16632,
    "previously": 4271,
    "aling": 4272,
    "pet": 6449,
    "double": 23352,
    "(@": 4275,
    "annel": 4276,
    "default": 12286,
    "ties": 8470,
    "rank": 43027,
    "Dec": 10707,
    "Council": 40940,
    "weapon": 28741,
    "stock": 13578,
    "analy": 38200,
    "Str": 13290,
    "picture": 34053,
    "Police": 9039,
    "ference": 4288,
    "century": 14792,
    "citizens": 46801,
    "onto": 5957,
    "expand": 4292,
    "hero": 11718,
    "Sol": 36949,
    "wild": 21992,
    "update": 19119,
    "customers": 4297,
    "ront": 4298,
    "lik": 46965,
    "criminal": 45955,
    "Christian": 20298,
    "SP": 6226,
    "76": 8684,
    "leaving": 4305,
    "otherwise": 4306,
    "Dist": 20344,
    "basis": 4308,
    "52": 6740,
    "53": 7192,
    "icip": 4311,
    "Ber": 24814,
    "recommend": 4313,
    "floor": 28300,
    "crowd": 4315,
    "oles": 4316,
    "central": 31463,
    "Ev": 15200,
    "dream": 25966,
    "download": 15002,
    "confir": 4322,
    "Thom": 37582,
    "window": 17497,
    "happens": 4325,
    "unit": 20850,
    "tend": 4327,
    "spl": 22018,
    "becomes": 4329,
    "fighting": 26594,
    "predict": 4331,
    "Press": 13800,
    "Power": 13434,
    "heavy": 23701,
    "aked": 4335,
    "fan": 24408,
    "orter": 4337,
    "ategy": 4338,
    "BA": 23715,
    "izes": 4340,
    "spend": 4341,
    "2007": 12726,
    "adop": 4344,
    "Ham": 21281,
    "football": 15914,
    "Port": 13924,
    "oday": 4348,
    "51": 6885,
    "ampions": 4350,
    "transfer": 39437,
    "ht": 4352,
    "acity": 4355,
    "bur": 6236,
    "],": 16589,
    "ternal": 4358,
    "rig": 7805,
    "therefore": 4361,
    "Because": 8128,
    "rey": 4364,
    "noted": 4367,
    "assum": 4368,
    "disease": 4369,
    "edit": 19312,
    "progress": 33723,
    "rd": 4372,
    "Brown": 20644,
    "ocal": 4374,
    "adding": 26872,
    "raised": 49309,
    "Any": 7149,
    "tick": 42298,
    "seeing": 42041,
    "People": 8061,
    "agreement": 4381,
    "server": 15388,
    "wat": 47261,
    "debate": 4384,
    "supposed": 4385,
    "iling": 4386,
    "largest": 28209,
    "successful": 17212,
    "Pri": 34487,
    "Democratic": 33939,
    "jump": 43327,
    "Syria": 40029,
    "owners": 15605,
    "offers": 4394,
    "shooting": 4395,
    "effic": 24531,
    "sey": 4397,
    "haven": 39487,
    "verse": 18527,
    "tered": 4400,
    "Light": 15047,
    "imal": 4402,
    "Big": 12804,
    "defend": 4404,
    "beat": 12945,
    "records": 4406,
    "%)": 4407,
    "scen": 4408,
    "employees": 4409,
    "devices": 42034,
    "hem": 16869,
    "commer": 4412,
    "Mex": 24670,
    "benefit": 48649,
    "Prof": 15404,
    "illeg": 4416,
    "surface": 42029,
    "Also": 7583,
    "harm": 29155,
    "ingly": 4420,
    "Alex": 15309,
    "shut": 49625,
    "Cur": 26628,
    "lose": 4425,
    "pm": 9114,
    "challenge": 4427,
    "semb": 4428,
    "station": 17529,
    "intelligence": 32683,
    "accur": 4431,
    "Flor": 26953,
    "requires": 47911,
    "Mal": 15029,
    "bum": 39564,
    "hospital": 49257,
    "spirit": 38685,
    "offered": 4438,
    "produce": 4439,
    "Commun": 30813,
    "creating": 4441,
    "cris": 4442,
    "spect": 5444,
    "daily": 29468,
    "voters": 4446,
    "lands": 8604,
    "ias": 4448,
    "ih": 4449,
    "ona": 4450,
    "smart": 27004,
    "Office": 27743,
    "Lord": 22438,
    "rial": 4454,
    "Internet": 28566,
    "circum": 4456,
    "extremely": 41073,
    "'.": 45302,
    "opinion": 4459,
    "Mil": 24857,
    "gain": 48544,
    "BS": 24218,
    "Fin": 18467,
    "yp": 4464,
    "useful": 4465,
    "budget": 37315,
    "comfort": 21598,
    "isf": 4468,
    "background": 25249,
    "eline": 4470,
    "episode": 38668,
    "enemy": 46970,
    "trial": 45994,
    "establish": 40037,
    "Cap": 15610,
    "continues": 4477,
    "showing": 4478,
    "Union": 38176,
    "posted": 40578,
    "System": 11964,
    "rian": 4484,
    "rise": 17163,
    "Germany": 27079,
    "ils": 4487,
    "signed": 32696,
    "vill": 41082,
    "grand": 23936,
    "England": 39163,
    "projects": 42068,
    "umber": 4494,
    "conference": 41124,
    "za": 4496,
    "responsible": 24358,
    "Arab": 31602,
    "learned": 4499,
    "âĢĶâĢĶ": 4500,
    "ipping": 4501,
    "George": 20191,
    "OC": 24775,
    "returned": 4504,
    "Australia": 27429,
    "brief": 4506,
    "brand": 17938,
    "illing": 4509,
    "abled": 4510,
    "highest": 35323,
    "train": 27432,
    "Commission": 50246,
    "nom": 26601,
    "ception": 4516,
    "mut": 21973,
    "Blue": 14573,
    "incident": 4519,
    "vant": 4520,
    "86": 9849,
    "nuclear": 43131,
    "74": 8915,
    "Like": 7594,
    "Micro": 13031,
    "li": 7649,
    "mail": 6920,
    "charges": 34948,
    "89": 9919,
    "adjust": 23032,
    "ado": 50129,
    "earth": 16442,
    "NA": 11746,
    "prices": 4536,
    "PA": 8147,
    "draft": 35679,
    "runs": 48381,
    "candidate": 4540,
    "enses": 4541,
    "management": 27604,
    "Phil": 18673,
    "Miss": 17140,
    "teach": 4545,
    "gram": 14599,
    "understanding": 4547,
    "ait": 4548,
    "icago": 4549,
    "Ep": 13807,
    "secut": 4552,
    "separate": 4553,
    "instance": 39098,
    "unless": 25252,
    "********": 4557,
    "Fore": 16351,
    "inate": 4559,
    "operations": 4560,
    "faith": 41751,
    "gar": 5482,
    "Church": 46686,
    "ronic": 4565,
    "config": 11250,
    "osure": 4567,
    "activities": 4568,
    "traditional": 36380,
    "direction": 37295,
    "machine": 30243,
    "surround": 4573,
    "push": 14689,
    "unction": 4575,
    "EU": 19684,
    "easier": 4577,
    "argument": 49140,
    "GB": 13124,
    "micro": 24055,
    "spending": 4581,
    "izations": 4582,
    "theory": 4583,
    "adow": 4584,
    "calling": 44714,
    "Last": 5956,
    "influence": 4588,
    "commit": 41509,
    "photo": 23074,
    "unc": 19524,
    "istry": 4592,
    "gn": 19967,
    "aste": 4594,
    "acks": 4595,
    "disp": 4596,
    "ady": 4597,
    "Good": 10248,
    "wish": 4601,
    "revealed": 4602,
    "ÂłÂł": 47654,
    "lig": 26106,
    "enforce": 4605,
    "Committee": 4606,
    "chem": 15245,
    "miles": 4608,
    "interested": 34339,
    "solution": 4610,
    "icy": 30284,
    "inct": 4612,
    "Det": 11242,
    "removed": 4615,
    "compar": 4616,
    "eah": 4617,
    "plant": 15060,
    "Since": 6385,
    "achieve": 4620,
    "advantage": 4621,
    "slightly": 4622,
    "bing": 4623,
    "placed": 21820,
    "Mad": 18454,
    "tim": 16514,
    "oses": 4629,
    "cru": 32838,
    "Rock": 19665,
    "mostly": 29471,
    "negative": 31591,
    "setting": 33990,
    "produced": 32783,
    "mur": 28582,
    "connection": 38659,
    "Mer": 13102,
    "driver": 26230,
    "executive": 4640,
    "assault": 46635,
    "born": 6286,
    "Ver": 13414,
    "tained": 4644,
    "structure": 4645,
    "reduce": 4646,
    "decades": 4647,
    "ded": 9395,
    "uke": 4649,
    "Many": 7085,
    "idden": 4651,
    "league": 19316,
    "join": 22179,
    "disco": 4655,
    "die": 11979,
    "cks": 4657,
    "assess": 4659,
    "agn": 4660,
    "goals": 4661,
    "ours": 16903,
    "IR": 14826,
    "senior": 4664,
    "iller": 4665,
    "ipment": 4667,
    "ocol": 4668,
    "uy": 4669,
    "Que": 15681,
    "parties": 4671,
    "irgin": 4672,
    "learning": 40684,
    "itable": 4674,
    "street": 25662,
    "camera": 25695,
    "skills": 4678,
    "cious": 4680,
    "celebr": 4681,
    "Franc": 42885,
    "existing": 25687,
    "willing": 4684,
    "lor": 4685,
    "Space": 14106,
    "critical": 34666,
    "La": 14772,
    "ortunately": 4690,
    "serve": 4691,
    "cold": 36673,
    "species": 35448,
    "TS": 26136,
    "animals": 4695,
    "Bay": 15262,
    "older": 19892,
    "Under": 9203,
    "estic": 4699,
    "Tre": 31055,
    "teacher": 4701,
    "prefer": 4702,
    "thread": 16663,
    "Matt": 13448,
    "manager": 37153,
    "ãĥ»": 4707,
    "professional": 33163,
    "Vol": 16598,
    "notes": 17815,
    "ula": 4712,
    "fresh": 48797,
    "ented": 4714,
    "uzz": 4715,
    "edy": 4716,
    "clusion": 4717,
    "Rel": 6892,
    "doubt": 4719,
    "EO": 4720,
    "opened": 26350,
    "Bit": 13128,
    "Advertisement": 39711,
    "guess": 4724,
    "UN": 4944,
    "explain": 4727,
    "otten": 4728,
    "attract": 4729,
    "aks": 4730,
    "string": 8841,
    "context": 22866,
    "ossible": 4733,
    "Republicans": 28455,
    "solid": 39390,
    "cities": 4736,
    "asking": 30463,
    "random": 25120,
    "ups": 19649,
    "uries": 4740,
    "arant": 4741,
    "dden": 4742,
    "Florida": 31135,
    "depend": 45841,
    "Scott": 19040,
    "iT": 4748,
    "icon": 7196,
    "mentioned": 17181,
    "2000": 11024,
    "claimed": 12795,
    "definitely": 4753,
    "ulf": 4754,
    "core": 7295,
    "opening": 29443,
    "Const": 34184,
    "Tra": 15721,
    "AG": 13077,
    "72": 7724,
    "believed": 4762,
    "ada": 4763,
    "Security": 24074,
    "yright": 4766,
    "Pet": 25803,
    "Lou": 24016,
    "holding": 19216,
    "================": 4770,
    "brow": 25367,
    "authorities": 4773,
    "score": 26675,
    "Div": 24095,
    "cells": 46342,
    "transl": 4779,
    "neighbor": 4780,
    "remove": 28956,
    "uct": 4782,
    "district": 4783,
    "According": 4821,
    "worse": 4785,
    "concerns": 4786,
    "presidential": 4787,
    "policies": 4788,
    "Hall": 34194,
    "73": 8854,
    "hus": 7537,
    "AY": 4792,
    "2006": 13330,
    "Jud": 26141,
    "independent": 34750,
    "Justice": 28447,
    "iliar": 4797,
    "ighter": 4799,
    "protection": 42846,
    "zen": 4801,
    "sudden": 4802,
    "Jes": 22290,
    "PR": 4810,
    "Inf": 18943,
    "bul": 15065,
    "Service": 16177,
    "strategy": 4811,
    "ffect": 4812,
    "girls": 36960,
    "missing": 45688,
    "oyal": 4815,
    "Team": 15592,
    "ulated": 4817,
    "dat": 19608,
    "politics": 34127,
    "abor": 4820,
    "spell": 46143,
    "graph": 34960,
    "orthern": 4824,
    "TC": 17283,
    "labor": 4827,
    "isher": 4828,
    "kick": 24585,
    "iTunes": 4830,
    "steps": 20214,
    "poses": 17313,
    "smaller": 4833,
    "bert": 4835,
    "researchers": 4837,
    "closed": 20225,
    "transport": 4839,
    "lawy": 4840,
    "________________": 4841,
    "Chicago": 25705,
    "aspect": 4843,
    "none": 23108,
    "marriage": 45394,
    "96": 9907,
    "elements": 4847,
    "Fre": 20366,
    "Sal": 19221,
    "dram": 4850,
    "FC": 10029,
    "hearing": 4854,
    "supported": 15999,
    "testing": 33407,
    "cohol": 4857,
    "massive": 49777,
    "stick": 13915,
    "guard": 14864,
    "isco": 4861,
    "border": 20192,
    "copy": 30073,
    "ography": 4867,
    "71": 9166,
    "owner": 18403,
    "ruit": 4872,
    "Once": 7454,
    "digital": 34725,
    "task": 35943,
    "ERS": 4877,
    "incred": 4878,
    "tes": 4879,
    "++": 19969,
    "France": 28572,
    "breat": 4882,
    "owl": 39610,
    "issued": 39361,
    "Western": 24227,
    "detect": 4886,
    "partners": 4887,
    "shared": 28710,
    "Call": 14134,
    "cancer": 48870,
    "ache": 4891,
    "ribe": 4892,
    "explained": 4893,
    "heat": 25080,
    "{\"": 19779,
    "investment": 4896,
    "Book": 10482,
    "tools": 31391,
    "Although": 7003,
    "belief": 4901,
    "crisis": 4902,
    "MP": 7378,
    "operation": 27184,
    "~~": 4907,
    "ga": 31986,
    "contains": 4909,
    "anta": 4910,
    "express": 42712,
    "Group": 13247,
    "Journal": 25296,
    "ka": 38387,
    "USA": 14053,
    "finding": 41070,
    "funding": 25032,
    "established": 27718,
    "ideos": 4921,
    "degree": 16863,
    "dangerous": 4923,
    "anging": 4924,
    "freedom": 41295,
    "pport": 4926,
    "outhern": 4927,
    "church": 36964,
    "catch": 40198,
    "Two": 7571,
    "presence": 4931,
    "Guard": 24502,
    "authority": 4934,
    "Project": 16775,
    "button": 16539,
    "consequ": 4937,
    "valid": 12102,
    "weak": 38695,
    "starts": 4940,
    "reference": 35790,
    "Mem": 13579,
    "\")": 4943,
    "orage": 4945,
    "Open": 11505,
    "collection": 43681,
    "ym": 4948,
    "gency": 4949,
    "beautiful": 4950,
    "ros": 4951,
    "tells": 4952,
    "waiting": 4953,
    "nel": 4954,
    "providing": 4955,
    "Democrats": 29969,
    "daughter": 29642,
    "master": 9866,
    "purposes": 4959,
    "Japanese": 25324,
    "equal": 40496,
    "turns": 4962,
    "documents": 4963,
    "watching": 50042,
    "reject": 4968,
    "Korea": 4969,
    "victims": 4970,
    "Level": 5684,
    "erences": 4972,
    "witness": 4973,
    "reform": 4975,
    "occup": 19596,
    "caught": 4978,
    "traffic": 4979,
    "ading": 4980,
    "models": 27530,
    "ario": 4982,
    "served": 45852,
    "batter": 4984,
    "uate": 4985,
    "Secretary": 38541,
    "agreed": 4987,
    "truly": 4988,
    "ynam": 4989,
    "Ret": 9781,
    "units": 41667,
    "Research": 25104,
    "azine": 4994,
    "Mike": 16073,
    "variety": 4996,
    "otal": 4997,
    "amazing": 4998,
    "confirmed": 36349,
    "entirely": 5000,
    "purchase": 5001,
    "element": 30854,
    "cash": 30350,
    "determine": 5004,
    "cars": 37993,
    "Wall": 22401,
    "âĸ": 11019,
    "views": 33571,
    "drugs": 5010,
    "department": 5011,
    "Step": 8600,
    "uit": 5013,
    "asure": 5015,
    "Class": 9487,
    "covered": 32111,
    "Bank": 28650,
    "mere": 34671,
    "uana": 5020,
    "multi": 41684,
    "mix": 19816,
    "unlike": 5023,
    "levision": 5024,
    "stopped": 5025,
    "sem": 43616,
    "Gal": 26552,
    "ules": 5028,
    "wel": 5029,
    "Johnson": 25378,
    "la": 8591,
    "skill": 42401,
    "becoming": 5033,
    "rie": 5034,
    "appropriate": 13335,
    "ellow": 5037,
    "Prot": 19703,
    "ulate": 5039,
    "ocation": 5040,
    "weekend": 5041,
    "odies": 5042,
    "sites": 49315,
    "animal": 41607,
    "Tim": 14967,
    "scale": 9888,
    "charged": 17200,
    "instruct": 5048,
    "illa": 5049,
    "methods": 5050,
    "cert": 22583,
    "judge": 5052,
    "Hel": 12621,
    "dollars": 5054,
    "standing": 5646,
    "Squ": 22266,
    "debt": 5057,
    "liam": 5058,
    "driving": 24255,
    "Sum": 13065,
    "Edition": 5061,
    "album": 40916,
    "andon": 5063,
    "IF": 16876,
    "Uk": 28425,
    "63": 8093,
    "ader": 5067,
    "commercial": 36313,
    "esh": 5069,
    "Government": 28848,
    "discovered": 5071,
    "output": 22915,
    "Hillary": 20397,
    "Carol": 5074,
    "2005": 14315,
    "abuse": 47158,
    "ancing": 5077,
    "switch": 31943,
    "annual": 5079,
    "stated": 21989,
    "agement": 5082,
    "inner": 8434,
    "democr": 5084,
    "residents": 5085,
    "allowing": 5086,
    "factors": 5087,
    "odd": 5629,
    "fuck": 31699,
    "emies": 5090,
    "occurred": 5091,
    "oti": 5092,
    "north": 43588,
    "Public": 15202,
    "injury": 5095,
    "insurance": 5096,
    "CL": 7852,
    "olly": 5098,
    "ãĢ": 5099,
    "repeated": 5100,
    "arms": 8357,
    "anged": 5102,
    "construction": 5103,
    "fle": 27919,
    "PU": 24676,
    "icians": 5106,
    "forms": 23914,
    "McC": 30464,
    "antic": 47792,
    "mental": 37098,
    "pire": 5111,
    "equipment": 5112,
    "fant": 5113,
    "discussion": 5114,
    "regarding": 5115,
    "kin": 18967,
    "arp": 5117,
    "chair": 16337,
    "ogue": 5119,
    "proceed": 5120,
    "Id": 7390,
    "murder": 5123,
    "asp": 5126,
    "supply": 5127,
    "input": 15414,
    "wealth": 14298,
    "liament": 5130,
    "proced": 5131,
    "orial": 5132,
    "Stat": 17126,
    "NFL": 32078,
    "hens": 5135,
    "Institute": 5136,
    "putting": 5137,
    "ournament": 5138,
    "etic": 5139,
    "located": 5140,
    "kid": 38439,
    "eria": 5142,
    "princ": 5144,
    "Bet": 13056,
    "clot": 5148,
    "telling": 18072,
    "proposed": 5150,
    "iot": 5151,
    "orry": 5152,
    "funds": 5153,
    "gment": 5154,
    "Life": 14662,
    "baby": 40252,
    "Back": 7282,
    "spoke": 5158,
    "Image": 7412,
    "earn": 5160,
    "exchange": 5163,
    "Lin": 14993,
    "oving": 5165,
    "pair": 24874,
    "azon": 5168,
    "arrested": 5169,
    "killing": 43764,
    "Card": 16962,
    "yd": 5173,
    "identified": 19107,
    "mobile": 24896,
    "thanks": 27547,
    "onym": 5177,
    "Form": 8479,
    "hundreds": 5179,
    "Chris": 15645,
    "Cat": 21979,
    "trend": 5182,
    "hat": 6877,
    "Av": 7355,
    "oman": 5185,
    "electric": 31067,
    "Wil": 22327,
    "SE": 7946,
    "restaur": 5190,
    "oted": 5191,
    "trig": 5192,
    "nine": 30888,
    "bomb": 27657,
    "Â¯": 49660,
    "coverage": 5197,
    "appeal": 5198,
    "Robert": 19156,
    "Sup": 40784,
    "finished": 43952,
    "flow": 11125,
    "deliver": 5203,
    "calcul": 5204,
    "photos": 24729,
    "phil": 28864,
    "pieces": 34154,
    "appre": 5208,
    "kes": 5209,
    "partner": 5212,
    "concerned": 5213,
    "Gen": 13746,
    "ctors": 5217,
    "=>": 14804,
    "suggested": 5220,
    "Force": 10292,
    "CE": 18671,
    "herself": 5223,
    "Plan": 20854,
    "ooth": 5226,
    "rency": 5227,
    "corner": 5228,
    "husband": 48912,
    "internet": 37675,
    "Aut": 16541,
    "ems": 5232,
    "osen": 5233,
    "Atl": 25255,
    "balance": 20427,
    "62": 8190,
    "sounds": 5238,
    "oves": 5241,
    "millions": 5242,
    "radio": 37004,
    "satisf": 5244,
    "Dam": 14550,
    "combat": 39969,
    "rant": 30993,
    "Gree": 5251,
    "fuel": 25802,
    "distance": 30246,
    "tests": 41989,
    "decre": 5255,
    "Er": 9139,
    "managed": 39935,
    "DS": 17400,
    "tit": 5259,
    "measures": 47336,
    "Liber": 31199,
    "attend": 5262,
    "ashed": 5263,
    "Jose": 23409,
    "Night": 24732,
    "dit": 5266,
    "Nov": 20795,
    "End": 12915,
    "outs": 12198,
    "generation": 20158,
    "advoc": 5271,
    "yth": 5272,
    "conversation": 5273,
    "Sky": 22308,
    "cel": 18725,
    "rier": 5277,
    "Frank": 17439,
    "gender": 8388,
    "concent": 5280,
    "carried": 5281,
    "anda": 5282,
    "Virgin": 34674,
    "arrived": 5284,
    "icide": 5285,
    "aded": 5286,
    "failure": 5287,
    "minimum": 39504,
    "lets": 8781,
    "worst": 41430,
    "keeping": 19934,
    "intended": 5292,
    "illegal": 47749,
    "subsc": 5294,
    "determined": 5295,
    "trip": 39813,
    "raise": 40225,
    "feels": 5300,
    "package": 26495,
    "Jo": 9908,
    "hi": 23105,
    "fra": 5306,
    "symb": 5307,
    "ucky": 5309,
    "Kh": 33155,
    "Edit": 18378,
    "Web": 13908,
    "emic": 5314,
    "Color": 10258,
    "justice": 31012,
    "farm": 43323,
    "cknow": 5319,
    "\">": 5320,
    "eless": 5321,
    "reduced": 5322,
    "xx": 31383,
    "Rad": 15546,
    "Wood": 22911,
    "clin": 5327,
    "hyp": 36362,
    "iler": 5329,
    "ura": 5330,
    "kins": 45338,
    "85": 7600,
    "61": 8454,
    "Their": 14574,
    "Mary": 24119,
    "san": 12807,
    "novel": 5337,
    "Who": 8241,
    "capacity": 42404,
    "impossible": 5340,
    "plays": 26024,
    "minister": 5342,
    "ijuana": 5343,
    "icate": 5344,
    "Set": 7248,
    "fram": 19298,
    "communities": 5348,
    "FBI": 39379,
    "ita": 5350,
    "strateg": 5352,
    "interests": 5353,
    "lock": 5793,
    "gers": 5355,
    "mas": 12422,
    "AND": 6981,
    "conflict": 5358,
    "requirements": 5359,
    "sac": 30584,
    "operating": 5361,
    "ini": 5362,
    "committed": 5364,
    "relatively": 5365,
    "south": 35782,
    "Â¯Â¯": 5367,
    "afford": 5368,
    "identity": 5369,
    "decisions": 5370,
    "accused": 5371,
    "victory": 5373,
    "och": 5374,
    "iat": 5375,
    "Name": 6530,
    "tion": 34222,
    "eds": 5379,
    "seek": 36163,
    "tight": 33464,
    "Images": 29398,
    "initi": 5383,
    "humans": 40205,
    "familiar": 5385,
    "audience": 5386,
    "internal": 32538,
    "venture": 13189,
    "sides": 5389,
    "TO": 10468,
    "dim": 27740,
    "conclud": 5392,
    "appoint": 5393,
    "enforcement": 44976,
    "Jim": 18050,
    "Association": 5396,
    "circumst": 5397,
    "Canadian": 28203,
    "joined": 46416,
    "differences": 5400,
    "Los": 28903,
    "protest": 5402,
    "twice": 5403,
    "glass": 20721,
    "arsh": 5406,
    "Army": 45272,
    "expression": 38011,
    "decide": 5409,
    "planning": 5410,
    "ania": 5411,
    "handle": 28144,
    "Microsoft": 15905,
    "Nor": 21991,
    "maximum": 47033,
    "Rev": 18009,
    "sea": 8583,
    "eval": 18206,
    "helps": 35194,
    "bound": 7784,
    "mouth": 14775,
    "standards": 5423,
    "clim": 5424,
    "Camp": 21111,
    "Fox": 19399,
    "cles": 5427,
    "army": 5428,
    "Techn": 25574,
    "acking": 5430,
    "xy": 5431,
    "SS": 6723,
    "bug": 25456,
    "Ukrain": 5435,
    "Max": 11518,
    "Jones": 25784,
    "Show": 15307,
    "planet": 47427,
    "winning": 14463,
    "faster": 5443,
    "broken": 25826,
    "TR": 7579,
    "defined": 23211,
    "healthy": 22796,
    "competition": 5449,
    "Island": 5451,
    "Fe": 14304,
    "announce": 5453,
    "Cup": 5454,
    "Instead": 13193,
    "client": 16366,
    "possibly": 39363,
    "ocket": 5459,
    "finish": 5461,
    "crew": 42276,
    "reserv": 5463,
    "editor": 35352,
    "hate": 37035,
    "sale": 21378,
    "controvers": 5467,
    "pages": 31126,
    "wing": 8539,
    "numer": 5470,
    "opposition": 5471,
    "2004": 15724,
    "refuge": 5473,
    "flight": 22560,
    "apart": 5475,
    "Lat": 24220,
    "Africa": 5478,
    "applications": 5479,
    "Palest": 32570,
    "Bur": 22991,
    "Social": 20636,
    "upgr": 5484,
    "shape": 43358,
    "speaking": 25159,
    "ansion": 5487,
    "ao": 5488,
    "Sn": 16501,
    "worry": 5490,
    "Britain": 37114,
    "roud": 5493,
    "hun": 20088,
    "introduced": 5495,
    "diet": 5496,
    "Second": 12211,
    "functions": 5499,
    "uts": 5500,
    "Each": 10871,
    "Jeff": 19139,
    "stress": 41494,
    "accounts": 5504,
    "guarant": 5505,
    "Ann": 18858,
    "edia": 5507,
    "honest": 5508,
    "tree": 21048,
    "African": 43032,
    "Bush": 36113,
    "},": 8964,
    "sch": 20601,
    "Only": 10049,
    "fif": 32041,
    "igan": 5516,
    "exercise": 5517,
    "Exp": 16870,
    "scientists": 5519,
    "legislation": 5520,
    "Work": 12468,
    "Spr": 38454,
    "ÃĤ": 5523,
    "Human": 20490,
    "survey": 5526,
    "rich": 7527,
    "rip": 18344,
    "maintain": 5529,
    "flo": 48679,
    "leadership": 5531,
    "Islamic": 26723,
    "College": 38951,
    "magic": 32707,
    "Prime": 26405,
    "figures": 5538,
    "inder": 5540,
    "xual": 5541,
    "Dead": 20489,
    "absolutely": 42994,
    "fourth": 49393,
    "presented": 5545,
    "rible": 5547,
    "alcohol": 42142,
    "ato": 5549,
    "DE": 7206,
    "porary": 5551,
    "grab": 32393,
    "vari": 25641,
    "quant": 40972,
    "Photo": 6191,
    "plus": 9541,
    "rick": 5557,
    "arks": 5558,
    "alternative": 5559,
    "pil": 5560,
    "approx": 5561,
    "objects": 48205,
    "Ro": 15450,
    "Android": 25934,
    "significantly": 5566,
    "Road": 29197,
    "kay": 34681,
    "avor": 5570,
    "acknow": 5571,
    "HD": 10227,
    "Sing": 29974,
    "Mont": 26031,
    "uns": 13271,
    "negoti": 5578,
    "Arch": 19895,
    "iki": 5580,
    "television": 5581,
    "Jewish": 28240,
    "committee": 26799,
    "motor": 5584,
    "appearance": 5585,
    "sitting": 5586,
    "strike": 33069,
    "Down": 8048,
    "Hist": 13749,
    "fold": 11379,
    "acement": 5592,
    "Louis": 32117,
    "belong": 5594,
    "mort": 30171,
    "prepared": 5597,
    "Master": 18254,
    "indeed": 5600,
    "Den": 21306,
    "TA": 21664,
    "ourney": 5604,
    "arc": 10389,
    "97": 10111,
    "advice": 5608,
    "changing": 22954,
    "listed": 17935,
    "launched": 5611,
    "isation": 5612,
    "Peter": 19727,
    "ishes": 5614,
    "lived": 24489,
    "Mel": 21102,
    "Supreme": 5617,
    "Federal": 24099,
    "ructure": 5620,
    "sets": 28709,
    "philos": 5622,
    "uous": 5623,
    "applied": 5625,
    "NOT": 11929,
    "housing": 50028,
    "Mount": 35452,
    "sust": 5630,
    "DA": 17051,
    "fficient": 5632,
    "olved": 5634,
    "powers": 30132,
    "thr": 5636,
    "remaining": 5637,
    "Water": 19184,
    "LC": 22228,
    "causes": 5640,
    "ãģ®": 5641,
    "manner": 5642,
    "ads": 9011,
    "suggests": 5644,
    "Dun": 30128,
    "idth": 5649,
    "gay": 22744,
    "termin": 23705,
    "Angeles": 5652,
    "MS": 6579,
    "scientific": 41355,
    "coal": 25140,
    "apers": 5656,
    "Thomas": 22405,
    "sym": 37047,
    "Run": 10987,
    "igrants": 5663,
    "minute": 11374,
    "District": 44857,
    "cellent": 5666,
    "leaves": 5667,
    "completed": 5668,
    "amin": 5669,
    "focused": 18143,
    "monitor": 41143,
    "vehicles": 5672,
    "MA": 8779,
    "Mass": 20273,
    "Grand": 23581,
    "affected": 43958,
    "itutional": 5677,
    "construct": 41571,
    "follows": 5679,
    "reens": 5681,
    "homes": 5682,
    "Ext": 11627,
    "rast": 5685,
    "Ir": 23820,
    "elim": 5687,
    "largely": 5688,
    "Joe": 19585,
    "votes": 29307,
    "alls": 5691,
    "businesses": 5692,
    "Foundation": 5693,
    "Central": 30645,
    "yards": 33750,
    "materials": 5696,
    "ulner": 5697,
    "guide": 41311,
    "closer": 5699,
    "ums": 5700,
    "sports": 32945,
    "eder": 5702,
    "taxes": 5704,
    "84": 9508,
    "Old": 19620,
    "decade": 5707,
    "ola": 5708,
    "vir": 37040,
    "dropped": 5710,
    "delay": 40850,
    "itect": 5712,
    "secure": 22390,
    "stein": 5714,
    "treated": 37182,
    "filed": 5717,
    "aine": 5718,
    "van": 10438,
    "mir": 10793,
    "column": 28665,
    "icted": 5722,
    "eper": 5723,
    "rot": 10599,
    "consult": 5725,
    "entry": 13000,
    "marijuana": 5727,
    "Dou": 40287,
    "apparently": 5729,
    "oking": 5730,
    "clusive": 5731,
    "increases": 5732,
    "ano": 5733,
    "specifically": 5734,
    "tele": 46813,
    "ensions": 5736,
    "religion": 5737,
    "abilities": 7883,
    "frame": 14535,
    "Note": 6425,
    "Lee": 24338,
    "helping": 5742,
    "edge": 14907,
    "oston": 5744,
    "organizations": 5745,
    "Ãĥ": 5746,
    "Both": 10265,
    "hips": 21497,
    "bigger": 5749,
    "boost": 39521,
    "Stand": 15480,
    "uls": 5753,
    "abase": 5754,
    "rid": 6058,
    "rave": 46242,
    "stret": 5759,
    "PD": 14340,
    "vision": 10178,
    "wearing": 5762,
    "appreci": 5763,
    "award": 5764,
    "Use": 11041,
    "factor": 31412,
    "ulations": 5768,
    ")(": 5769,
    "god": 25344,
    "territ": 5771,
    "param": 17143,
    "asts": 5773,
    "87": 10083,
    "enemies": 5775,
    "Games": 24474,
    "FF": 18402,
    "accident": 5778,
    "Martin": 24778,
    "TER": 28994,
    "Hell": 28254,
    "forg": 5784,
    "veter": 5785,
    "Medic": 39112,
    "stars": 30783,
    "expensive": 22031,
    "acad": 5790,
    "rawn": 5791,
    "Whe": 10842,
    "format": 18982,
    "soldiers": 5795,
    "agent": 25781,
    "responsibility": 5798,
    "ora": 5799,
    "Science": 26959,
    "rapid": 5801,
    "tough": 5802,
    "Jesus": 28219,
    "believes": 5804,
    "ML": 10373,
    "wear": 13927,
    "lete": 5807,
    "ÃĥÃĤ": 5808,
    "Dri": 20564,
    "commission": 5810,
    "Bob": 18861,
    "aped": 5813,
    "warm": 31975,
    "ÃĥÃĤÃĥÃĤ": 5815,
    "2003": 16088,
    "ortion": 5817,
    "hasn": 5818,
    "uster": 5819,
    "univers": 5820,
    "Ill": 21478,
    "ologies": 5823,
    "94": 10048,
    "Tem": 12966,
    "Mos": 32668,
    "patient": 26029,
    "Mexico": 33006,
    "cean": 5829,
    "Death": 20148,
    "Sanders": 26747,
    "Cast": 19248,
    "Company": 39154,
    "pty": 5835,
    "happening": 5836,
    "FP": 31459,
    "Battle": 24064,
    "bought": 5839,
    "uters": 5843,
    "Cre": 12443,
    "Those": 9627,
    "iser": 5847,
    "soul": 5848,
    "Top": 9126,
    "Harry": 18308,
    "Aw": 23155,
    "seat": 24073,
    "ffee": 5853,
    "revolution": 32243,
    "(\"": 7203,
    "During": 7191,
    "ette": 5857,
    "offensive": 45055,
    "returns": 5860,
    "videos": 32861,
    "discl": 5862,
    "famous": 45143,
    "enced": 5864,
    "Sign": 11712,
    "River": 42204,
    "300": 6200,
    "Bus": 16286,
    "candidates": 5871,
    "arden": 5872,
    "percentage": 5873,
    "visual": 41464,
    "thank": 40716,
    "trouble": 5876,
    "nergy": 5877,
    "2001": 14585,
    "prove": 5879,
    "ashion": 5880,
    "enh": 16550,
    "Long": 14617,
    "UM": 44352,
    "connected": 15236,
    "possibility": 5885,
    "expert": 5887,
    "library": 32016,
    "arts": 10848,
    "Director": 28702,
    "fellow": 5891,
    "92": 10190,
    "irty": 5893,
    "dry": 39140,
    "signs": 5895,
    "Love": 18565,
    "quiet": 39624,
    "pure": 37424,
    "Hun": 25117,
    "filled": 20286,
    "phas": 5902,
    "Elect": 19453,
    "endment": 5904,
    "Expl": 18438,
    "unable": 5906,
    "ns": 36545,
    "mo": 6941,
    "vast": 5909,
    "obe": 45653,
    "identify": 5911,
    "apping": 5912,
    "Carolina": 5913,
    "gress": 5914,
    "prote": 5915,
    "fish": 11084,
    "circumstances": 5917,
    "razy": 5918,
    "Phot": 27248,
    "bodies": 5920,
    "Mur": 23830,
    "developing": 5922,
    "experienced": 5924,
    "substant": 5925,
    "Board": 29828,
    "esome": 5927,
    "domestic": 5928,
    "combined": 5929,
    "Put": 11588,
    "chemical": 31379,
    "Child": 16424,
    "pool": 7742,
    "Cy": 20418,
    "egg": 33856,
    "sters": 5937,
    "hurt": 5938,
    "markets": 34162,
    "conservative": 43218,
    "supporters": 5941,
    "agencies": 5942,
    "idel": 5943,
    "urb": 5945,
    "Defense": 27300,
    "ye": 9838,
    "Ap": 25189,
    "dule": 5950,
    "temperature": 5951,
    "conducted": 5952,
    "Chief": 23675,
    "pulled": 5954,
    "fol": 9062,
    "osis": 5958,
    "VER": 33310,
    "Pan": 15730,
    "advance": 5963,
    "license": 43085,
    "rors": 5965,
    "Jon": 18219,
    "imagine": 5967,
    "hell": 12758,
    "fixed": 34021,
    "incor": 5970,
    "osite": 5971,
    "Log": 11187,
    "icken": 5973,
    "]:": 5974,
    "surprise": 5975,
    "hab": 5976,
    "olt": 5978,
    "Jul": 16980,
    "dial": 38969,
    "relevant": 49659,
    "entered": 5982,
    "leads": 5983,
    "Clean": 32657,
    "pictures": 5986,
    "essor": 5987,
    "paying": 32629,
    "Market": 27470,
    "updates": 5992,
    "amily": 5993,
    "Type": 6030,
    "Home": 16060,
    "sembly": 5997,
    "rome": 5998,
    "83": 9698,
    "greatest": 6000,
    "height": 17015,
    "heav": 6002,
    "aints": 6003,
    "listen": 6004,
    "aser": 6005,
    "SH": 9693,
    "capable": 6007,
    "acle": 6008,
    "perspect": 6009,
    "inating": 6010,
    "offering": 6011,
    "rypt": 6012,
    "Develop": 19246,
    "abin": 6014,
    "rc": 48321,
    "bright": 29199,
    "alty": 6017,
    "arrow": 15452,
    "suppl": 6019,
    "inding": 6020,
    "acked": 6021,
    "gypt": 6022,
    "Another": 6610,
    "pg": 23241,
    "Virginia": 41017,
    "Lu": 25596,
    "planned": 36800,
    "pit": 15544,
    "sweet": 34751,
    "Di": 18683,
    "typically": 48126,
    "Francisco": 6033,
    "prospect": 6034,
    "Dan": 21174,
    "teen": 7821,
    "rees": 6037,
    "sched": 6038,
    "scr": 6040,
    "lots": 6041,
    "newsp": 6043,
    "forget": 6044,
    "None": 14202,
    "Middle": 34621,
    "Ryan": 21868,
    "edd": 6048,
    "severe": 43070,
    "suit": 6063,
    "ller": 6051,
    "93": 10261,
    "correspond": 6053,
    "explos": 6054,
    "uations": 6055,
    "flag": 32109,
    "prin": 6059,
    "Data": 6601,
    "deploy": 6061,
    "Enter": 17469,
    "ghan": 6064,
    "Men": 10418,
    "thoughts": 6066,
    "matters": 6067,
    "adapt": 42552,
    "Ari": 26529,
    "fill": 20797,
    "forth": 25718,
    "sam": 37687,
    "payment": 37301,
    "Hor": 27991,
    "spring": 16469,
    "duc": 6077,
    "losing": 6078,
    "bringing": 35749,
    "FO": 11895,
    "ala": 6081,
    "distribution": 6082,
    "hered": 6083,
    "bour": 38043,
    "Israeli": 29818,
    "oma": 6086,
    "combination": 6087,
    "plenty": 6088,
    "VE": 6089,
    "Haw": 33055,
    "perman": 6092,
    "Special": 13409,
    "tow": 6094,
    "seeking": 38515,
    "examples": 6096,
    "classes": 37724,
    "beer": 42428,
    "moves": 6100,
    "Kn": 25095,
    "panel": 35330,
    "properly": 6105,
    "plug": 16875,
    "estimated": 6108,
    "defensive": 6110,
    "agraph": 6111,
    "pregn": 6112,
    "instit": 6113,
    "Vict": 21944,
    "volume": 29048,
    "positions": 6116,
    "links": 28751,
    "Program": 15167,
    "Week": 20916,
    "agues": 6120,
    "transform": 35636,
    "ker": 41927,
    "CEO": 46691,
    "cas": 34004,
    "opponent": 6125,
    "tweet": 6126,
    "Code": 10669,
    "shop": 24643,
    "fly": 12254,
    "talks": 6130,
    "bag": 21454,
    "Phone": 14484,
    "plants": 6134,
    "attorney": 6136,
    "arters": 6137,
    "Magic": 22975,
    "begins": 6140,
    "myster": 6141,
    "environmental": 6142,
    "storage": 35350,
    "NN": 6144,
    "marg": 30887,
    "ske": 6146,
    "metal": 28469,
    "elly": 6148,
    "ordered": 24071,
    "remained": 6150,
    "loved": 6151,
    "prompt": 6152,
    "updated": 43162,
    "experts": 6154,
    "walking": 44065,
    "ancient": 6156,
    "performed": 6157,
    "ATE": 6158,
    "neither": 6159,
    "iency": 6160,
    "manufacture": 6161,
    "Pak": 29675,
    "selected": 34213,
    "ultimately": 6165,
    "explan": 6166,
    "label": 18242,
    "Services": 31007,
    "ributed": 6169,
    "syn": 28869,
    "Ult": 16301,
    "SC": 6374,
    "meat": 41495,
    "giant": 6175,
    "Wars": 41508,
    "adm": 6178,
    "interpret": 27381,
    "evening": 6180,
    "evil": 23542,
    "Boston": 31710,
    "Wild": 25946,
    "Bitcoin": 22614,
    "Amazon": 24888,
    "Information": 21918,
    "obviously": 6189,
    "advanced": 6190,
    "olar": 6192,
    "weather": 23563,
    "symbol": 6194,
    "sole": 6753,
    "potentially": 6196,
    "oster": 6197,
    "originally": 6198,
    "mun": 29856,
    "aze": 6201,
    "essions": 6202,
    "deck": 35875,
    "stood": 6501,
    "youth": 6205,
    "Bern": 23927,
    "Test": 14402,
    "basically": 6209,
    "otic": 6210,
    "involve": 6211,
    "olit": 6212,
    "lyn": 31432,
    "aircraft": 6215,
    "confirm": 6216,
    "EW": 43255,
    "messages": 6218,
    "Richard": 22245,
    "kit": 15813,
    "prohib": 6221,
    "vulner": 6222,
    "isters": 6223,
    "existence": 41084,
    "turning": 6225,
    "desire": 6227,
    "flat": 38568,
    "anges": 6231,
    "neighborhood": 6232,
    "Lake": 43035,
    "ATION": 6234,
    "pointed": 6235,
    "innov": 6237,
    "ucks": 6238,
    "UL": 44475,
    "professor": 6240,
    "expressed": 6241,
    "AB": 9564,
    "icious": 6243,
    "2002": 16942,
    "Dev": 13603,
    "session": 29891,
    "bare": 49382,
    "diss": 6249,
    "Cath": 39581,
    "Pass": 14478,
    "Point": 12727,
    "doctor": 35580,
    "orrow": 6254,
    "ailed": 6255,
    "Rub": 21312,
    "DC": 9697,
    "Charl": 24453,
    "writer": 16002,
    "ighters": 6261,
    "ureau": 6262,
    "oblig": 6263,
    "recorded": 47398,
    "broke": 6265,
    "orders": 6361,
    "ilty": 6267,
    "motion": 38714,
    "inity": 6269,
    "adium": 6271,
    "immigration": 47620,
    "contrast": 6273,
    "batt": 6274,
    "excellent": 6275,
    "technical": 47944,
    "ami": 6277,
    "tun": 28286,
    "cloud": 17721,
    "Year": 17688,
    "geon": 6281,
    "creation": 38793,
    "strange": 6283,
    "auth": 18439,
    "extent": 6287,
    "Today": 8888,
    "Club": 42350,
    "sample": 39873,
    "accepted": 6292,
    "tact": 6293,
    "fired": 26803,
    "Son": 31056,
    "stands": 6296,
    "boot": 18769,
    "statements": 6299,
    "versions": 47178,
    "selling": 16473,
    "ounded": 6302,
    "1990": 19891,
    "weren": 6304,
    "Watch": 10723,
    "experiment": 6306,
    "retail": 6308,
    "uled": 6309,
    "unte": 6311,
    "ãĥ¼": 6312,
    "depart": 6313,
    "bond": 6314,
    "ivery": 6315,
    "ompl": 6316,
    "reaction": 6317,
    "Syrian": 42747,
    "Pac": 18844,
    "apped": 6320,
    "aniel": 6321,
    "DP": 27704,
    "resolution": 29268,
    "react": 45018,
    "approved": 29137,
    "onom": 6326,
    "mond": 6327,
    "Offic": 12710,
    "---": 11420,
    "replace": 33491,
    "tack": 6331,
    "sport": 6332,
    "chain": 7983,
    "emergency": 6334,
    "Palestin": 6336,
    "automatically": 6338,
    "route": 38629,
    "pal": 18596,
    "banks": 43558,
    "Paris": 40313,
    "Media": 13152,
    "icing": 41567,
    "ixt": 6346,
    "isted": 6347,
    "grew": 6348,
    "coord": 37652,
    "Where": 8496,
    "omin": 30366,
    "subs": 6352,
    "ï¿½ï¿½": 6353,
    "Â±": 22519,
    "corporate": 6355,
    "selection": 49283,
    "noon": 19613,
    "Report": 19100,
    "cs": 50115,
    "cluding": 6360,
    "anche": 6362,
    "Its": 20459,
    "slowly": 6364,
    "Egypt": 39299,
    "Acc": 17320,
    "colle": 6367,
    "iques": 6368,
    "EX": 7788,
    "attempts": 6370,
    "url": 19016,
    "Cross": 21544,
    "findings": 6373,
    "index": 9630,
    "ensity": 6377,
    "Way": 25309,
    "Land": 22342,
    "shock": 39563,
    "dynam": 6382,
    "cart": 26674,
    "mosp": 6384,
    "iest": 6386,
    "Boy": 26554,
    "storm": 12135,
    "Contin": 17875,
    "hew": 6391,
    "ilit": 6392,
    "essential": 31195,
    "iquid": 6394,
    "ivered": 6396,
    "reasonable": 42275,
    "subsequ": 6399,
    "Pack": 11869,
    "Fort": 21926,
    "considering": 6402,
    "university": 6403,
    "married": 30526,
    "illust": 6406,
    "True": 17821,
    "£ı": 6408,
    "numerous": 6409,
    "rastructure": 6410,
    "seriously": 6411,
    "referred": 6412,
    "ua": 6413,
    "consistent": 6414,
    "onna": 6415,
    "Real": 15633,
    "ruption": 6417,
    "ciples": 6418,
    "facts": 37473,
    "91": 10495,
    "otes": 6421,
    "erg": 39035,
    "accompl": 6424,
    "revenue": 6426,
    "passing": 6427,
    "mal": 7617,
    "een": 6429,
    "Yet": 11486,
    "gather": 6431,
    "terday": 6432,
    "ework": 6433,
    "Author": 13838,
    "optim": 40085,
    "rub": 25089,
    "è£ı": 6438,
    "unknown": 34680,
    "stone": 7815,
    "union": 24592,
    "olve": 6442,
    "opportunities": 6443,
    "browser": 40259,
    "Wal": 21902,
    "Cost": 13729,
    "reporting": 49914,
    "sts": 39747,
    "sand": 38142,
    "suddenly": 6451,
    "surprising": 6452,
    "VR": 13024,
    "somewhat": 6454,
    "Bas": 15522,
    "ulture": 6456,
    "izz": 6457,
    "CD": 8610,
    "challenges": 6459,
    "settings": 33692,
    "experiences": 6461,
    "Full": 13295,
    "cann": 6463,
    "receiving": 6464,
    "EST": 17160,
    "joint": 6466,
    "cultural": 30844,
    "82": 9415,
    "astern": 6470,
    "ceived": 6471,
    "Cru": 27535,
    "bull": 16308,
    "pired": 6474,
    "amm": 6475,
    "facing": 29532,
    "boss": 42820,
    "Hol": 28115,
    "instr": 6480,
    "increasingly": 6481,
    "shift": 30846,
    "streets": 6483,
    "Williams": 27869,
    "abb": 6485,
    "lie": 14485,
    "laugh": 44944,
    "Ca": 24334,
    "PL": 9297,
    "adults": 6490,
    "customer": 6491,
    "obtained": 6492,
    "supporting": 6493,
    "html": 27711,
    "detailed": 6496,
    "picked": 41891,
    "Right": 11028,
    "lder": 6499,
    "EE": 27254,
    "Kim": 26374,
    "wire": 21809,
    "sight": 18627,
    "developers": 6505,
    "persons": 6506,
    "sad": 6507,
    "cup": 25244,
    "warning": 43917,
    "boys": 13202,
    "bird": 16944,
    "fo": 11511,
    "wal": 16783,
    "observed": 6515,
    "zone": 11340,
    "iveness": 6517,
    "channel": 17620,
    "cript": 6519,
    "refused": 6520,
    "Again": 15316,
    "suc": 6522,
    "spokesman": 6523,
    "Ref": 8134,
    "rite": 46048,
    "ouston": 6526,
    "ãĥ³": 6527,
    "Sher": 28782,
    "acts": 8656,
    "struggle": 6531,
    "arry": 6532,
    "ometimes": 6533,
    "discrim": 6534,
    "HT": 7154,
    "category": 22872,
    "realize": 6537,
    "employee": 6538,
    "Afghan": 6539,
    "enger": 6540,
    "guns": 44265,
    "Steve": 19206,
    "Mot": 47733,
    "Ol": 30098,
    "oked": 6545,
    "thick": 6546,
    "fairly": 6547,
    "illy": 6548,
    "surve": 6549,
    "Mat": 19044,
    "âĶ": 13305,
    "troops": 6553,
    "agents": 49638,
    "battery": 6555,
    "motiv": 6556,
    "Ã¡": 6557,
    "overy": 6560,
    "LS": 30948,
    "flu": 35522,
    "confident": 6563,
    "Oper": 18843,
    "empty": 28920,
    "phen": 31024,
    "sector": 34914,
    "excited": 6568,
    "remote": 47960,
    "aph": 49812,
    "oen": 6571,
    "destroyed": 6572,
    "moral": 41996,
    "HP": 14082,
    "Ron": 23672,
    "dress": 49380,
    "Bat": 24541,
    "lit": 18250,
    "HL": 38312,
    "rum": 7440,
    "isms": 6583,
    "shouldn": 6584,
    "sympt": 6585,
    "Toronto": 31359,
    "hetic": 6587,
    "carbon": 29255,
    "installed": 37050,
    "violent": 24498,
    "solar": 6591,
    "ja": 45091,
    "practices": 6593,
    "ride": 13154,
    "Penn": 39899,
    "improved": 6596,
    "audio": 24051,
    "behavi": 6598,
    "eating": 30041,
    "Review": 14832,
    "uated": 6605,
    "angers": 6606,
    "chen": 6607,
    "properties": 48310,
    "anywhere": 6609,
    "blow": 48619,
    "Jackson": 31270,
    "proud": 6613,
    "plane": 14382,
    "square": 23415,
    "proof": 13288,
    "ansas": 6618,
    "talked": 6619,
    "makers": 14429,
    "sister": 6621,
    "holds": 6622,
    "resident": 8154,
    "resistance": 6625,
    "split": 35312,
    "prosecut": 6627,
    "confidence": 39745,
    "resents": 6629,
    "cuts": 23779,
    "exception": 6631,
    "zero": 22570,
    "Getty": 7136,
    "copyright": 6634,
    "totally": 6635,
    "ormal": 6636,
    "ifications": 6637,
    "Australian": 38036,
    "sick": 6639,
    "150": 8628,
    "household": 6641,
    "fees": 6642,
    "drivers": 36702,
    "ogen": 6644,
    "NY": 12805,
    "necessarily": 6646,
    "regulations": 6647,
    "earing": 6648,
    "perspective": 6650,
    "icial": 6652,
    "escape": 41915,
    "surprised": 6655,
    "Van": 25298,
    "urrent": 6657,
    "vac": 6658,
    "81": 9773,
    "Thus": 19093,
    "emphas": 6661,
    "Champions": 6662,
    "Ice": 23709,
    "narr": 6664,
    "heads": 16600,
    "causing": 6666,
    "fortunately": 39955,
    "Ma": 21467,
    "targets": 6670,
    "cipl": 6671,
    "afternoon": 6672,
    "adds": 6673,
    "Maybe": 13300,
    "Four": 15137,
    "essed": 6676,
    "plete": 6677,
    "usual": 37850,
    "ingu": 6680,
    "withd": 6681,
    "Energy": 28925,
    "Econom": 28489,
    "OO": 6684,
    "articles": 26845,
    "injured": 6686,
    "manage": 6687,
    "explains": 6688,
    "diagn": 47356,
    "atures": 6691,
    "linked": 25614,
    "discussed": 6693,
    "explo": 6694,
    "occasion": 6695,
    "athan": 6696,
    "opposite": 6697,
    "faces": 32186,
    "denied": 6699,
    "Knight": 44242,
    "nut": 14930,
    "approximately": 47498,
    "disappoint": 6703,
    "onymous": 6704,
    "Best": 13014,
    "Lo": 27654,
    "Hy": 21217,
    "Aff": 35191,
    "voting": 6709,
    "anwhile": 6710,
    "III": 10855,
    "institutions": 6712,
    "agram": 6713,
    "Daily": 28545,
    "drag": 6715,
    "nearby": 6716,
    "guilty": 6717,
    "conver": 6718,
    "reward": 6721,
    "philosoph": 6722,
    "ugh": 6724,
    "apps": 18211,
    "upper": 45828,
    "advert": 17904,
    "snow": 6729,
    "frust": 6730,
    "ourselves": 6731,
    "Die": 32423,
    "ampion": 6734,
    "dismiss": 6735,
    "cere": 6736,
    "signal": 6737,
    "crimes": 6741,
    "itors": 6742,
    "estival": 6743,
    "useum": 6744,
    "council": 6745,
    "Saud": 6746,
    "Gun": 22993,
    "ician": 6749,
    "ether": 28475,
    "sufficient": 46790,
    "Hen": 26055,
    "historical": 6754,
    "Far": 21428,
    "Turn": 17278,
    "pin": 11635,
    "succeed": 6758,
    "lymp": 6760,
    "tradition": 6761,
    "Ok": 18690,
    "cro": 19915,
    "description": 11213,
    "alle": 28654,
    "sky": 15688,
    "widely": 6768,
    "wave": 19204,
    "definition": 46758,
    "Jews": 47415,
    "cycle": 13696,
    "refere": 6773,
    "brings": 6774,
    "usal": 6775,
    "alive": 6776,
    "frequently": 6777,
    "intention": 40867,
    "Control": 15988,
    "lv": 6780,
    "ystem": 6781,
    "privacy": 6782,
    "gent": 25049,
    "rence": 6784,
    "Quest": 12166,
    "Christmas": 44614,
    "rail": 30224,
    "cooper": 6788,
    "tested": 39612,
    "Capt": 19209,
    "asks": 7893,
    "comfortable": 6792,
    "delivered": 6793,
    "scape": 6794,
    "depth": 18053,
    "GOP": 44962,
    "writes": 6797,
    "assets": 19668,
    "sav": 39308,
    "iments": 6800,
    "transition": 6801,
    "artist": 49016,
    "Look": 8567,
    "lob": 6804,
    "components": 6805,
    "arity": 6806,
    "walked": 6807,
    "root": 15763,
    "participants": 6809,
    "noticed": 31696,
    "resc": 6811,
    "nav": 28341,
    "Administ": 41862,
    "da": 12379,
    "utral": 6815,
    "plate": 7480,
    "importance": 6817,
    "assert": 30493,
    "iously": 6819,
    "cription": 6820,
    "injuries": 6821,
    "Check": 9787,
    "registered": 33736,
    "intent": 48536,
    "missed": 6825,
    "ographic": 6826,
    "sentence": 6827,
    "ounter": 6828,
    "assistance": 6829,
    "evin": 6830,
    "database": 48806,
    "buildings": 6832,
    "classic": 49421,
    "thinks": 6834,
    "Ohio": 31274,
    "ugg": 6837,
    "fee": 39071,
    "effectively": 6840,
    "facility": 6841,
    "bear": 33227,
    "chapter": 43582,
    "dogs": 22242,
    "Columb": 36063,
    "latter": 6846,
    "itial": 6847,
    "admitted": 6848,
    "Georg": 33428,
    "posts": 24875,
    "\\\\": 26867,
    "lawyer": 6853,
    "equival": 6854,
    "mand": 22249,
    "controlled": 14401,
    "Walk": 35963,
    "Andrew": 20508,
    "menu": 26272,
    "amental": 6860,
    "protected": 24326,
    "va": 46935,
    "administr": 6863,
    "oral": 12886,
    "rein": 6865,
    "Sar": 6866,
    "amounts": 6867,
    "native": 30191,
    "Moon": 31640,
    "represents": 6870,
    "abandon": 6871,
    "carrying": 6872,
    "tank": 28451,
    "mary": 6874,
    "declared": 6875,
    "Tube": 34510,
    "punish": 6878,
    "ellect": 6879,
    "mes": 18842,
    "universe": 6881,
    "Rod": 27917,
    "phy": 6883,
    "infrastructure": 6884,
    "opposed": 6886,
    "ownt": 6887,
    "Make": 12050,
    "hardware": 6890,
    "coffee": 6891,
    "Saf": 6895,
    "Sea": 37567,
    "inals": 6897,
    "owned": 11990,
    "hall": 18323,
    "ersion": 6900,
    "describe": 6901,
    "Pot": 25396,
    "portion": 16864,
    "atmosp": 6904,
    "governments": 6905,
    "depending": 44023,
    "offense": 6907,
    "trick": 6908,
    "awa": 14908,
    "Line": 13949,
    "Vis": 15854,
    "Hard": 17309,
    "Orig": 11610,
    "Click": 8164,
    "desk": 6915,
    "Valley": 6916,
    "Sov": 38574,
    "movies": 6918,
    "remark": 6919,
    "conscious": 16796,
    "ruling": 6922,
    "Rights": 6923,
    "medic": 6924,
    "hent": 6925,
    "Women": 18495,
    "><": 28725,
    "replaced": 6928,
    "Prem": 24914,
    "Thanks": 9690,
    "renew": 6931,
    "Ball": 23410,
    "iform": 6933,
    "shots": 20910,
    "armed": 12026,
    "constant": 6937,
    "taste": 6938,
    "realized": 6939,
    "buff": 36873,
    "efficient": 16814,
    "oration": 6944,
    "ifies": 6945,
    "communication": 32560,
    "flood": 6947,
    "consequences": 6948,
    "anyway": 6949,
    "igg": 6950,
    "GM": 15548,
    "Thank": 10449,
    "evolution": 6954,
    "Cop": 13379,
    "twitter": 17044,
    "relationships": 6958,
    "adel": 6959,
    "Young": 20917,
    "proposal": 6961,
    "ayers": 6962,
    "uilding": 6963,
    "Hot": 21352,
    "ORE": 6965,
    "cos": 8615,
    "collabor": 6967,
    "PG": 23842,
    "axy": 6969,
    "knowing": 6970,
    "supports": 6971,
    "owed": 21057,
    "controls": 6973,
    "merely": 6974,
    "umer": 6975,
    "athlet": 6976,
    "fashion": 25265,
    "gift": 6979,
    "era": 8607,
    "kinds": 6982,
    "Korean": 6983,
    "legit": 6984,
    "ulous": 6985,
    "essentially": 6986,
    "therap": 6987,
    "nic": 9200,
    "suffered": 6989,
    "hur": 48349,
    "promise": 6991,
    "excess": 6992,
    "overw": 6993,
    "prime": 35505,
    "Houston": 33387,
    "erry": 6996,
    "Ms": 10128,
    "RS": 19340,
    "stores": 43409,
    "Olymp": 7001,
    "journey": 7002,
    "Educ": 33380,
    "Chapter": 14126,
    "requests": 7007,
    "consumers": 7008,
    "tiny": 44152,
    "isol": 30152,
    "Fair": 30099,
    "ba": 26605,
    "YOU": 36981,
    "crash": 7014,
    "celer": 7015,
    "emotional": 7016,
    "goods": 7017,
    "elected": 28604,
    "moder": 7019,
    "Linux": 19314,
    "blocks": 27372,
    "island": 7022,
    "Society": 7023,
    "elections": 7024,
    "broadcast": 7025,
    "cheap": 7026,
    "nations": 7027,
    "seasons": 7028,
    "400": 7337,
    "waste": 7030,
    "Sat": 20245,
    "fields": 25747,
    "profile": 13317,
    "authors": 41617,
    "ALL": 11096,
    "Gra": 46971,
    "west": 7421,
    "Ty": 25492,
    "deaths": 7040,
    "vacc": 37839,
    "formed": 12214,
    "ongoing": 7044,
    "Muslims": 36452,
    "elf": 23878,
    "igure": 7047,
    "assume": 7048,
    "Ukraine": 44814,
    "coast": 7051,
    "voted": 7052,
    "gor": 30344,
    "Michigan": 40610,
    "aza": 7056,
    "Arm": 26560,
    "iro": 7058,
    "flex": 32880,
    "asters": 7060,
    "''": 10148,
    "welcome": 7062,
    "arl": 7063,
    "locations": 7064,
    "igation": 7065,
    "Fil": 11928,
    "buying": 7067,
    "architect": 7068,
    "harder": 7069,
    "Cub": 43632,
    "interface": 39994,
    "restaurant": 7072,
    "discover": 7073,
    "exceed": 7074,
    "favour": 7075,
    "gery": 7076,
    "duty": 26278,
    "pitch": 7078,
    "ador": 7079,
    "Mach": 49999,
    "responded": 7082,
    "extended": 7083,
    "hers": 25144,
    "raid": 9513,
    "ifer": 7087,
    "Ins": 20376,
    "medium": 24132,
    "Sports": 18153,
    "magazine": 7093,
    "utation": 7094,
    "limits": 49196,
    "Gall": 37122,
    "external": 22615,
    "razil": 7098,
    "younger": 7099,
    "tle": 7100,
    "remind": 7101,
    "CON": 10943,
    "immediate": 7103,
    "hidden": 30342,
    "volunte": 7105,
    "simpl": 7106,
    "odcast": 7107,
    "phase": 40715,
    "plot": 29487,
    "exposure": 7111,
    "RI": 37271,
    "ograp": 7113,
    "vin": 7114,
    "anish": 7115,
    "Acad": 7116,
    "Engine": 13798,
    "expansion": 7118,
    "Pay": 19197,
    "pushed": 7121,
    "Ell": 30639,
    "Head": 13847,
    "marketing": 7124,
    "ket": 22354,
    "hits": 7127,
    "gro": 27333,
    "Age": 23396,
    "Scot": 37559,
    "][": 41832,
    "stim": 42003,
    "iPhone": 37032,
    "ĪĴ": 7134,
    "narrow": 7135,
    "Turkey": 31632,
    "perfectly": 7138,
    "enable": 21633,
    "utch": 7140,
    "precise": 7141,
    "regime": 7142,
    "shif": 7143,
    "compens": 7144,
    "chosen": 7147,
    "Ken": 27827,
    "trees": 7150,
    "recommended": 7151,
    "Ren": 26764,
    "uable": 7153,
    "Follow": 7281,
    "EG": 41513,
    "Hand": 12885,
    "Kenn": 39324,
    "arguments": 7159,
    "exists": 7160,
    "bike": 32256,
    "Conserv": 7162,
    "breaking": 13395,
    "Gar": 27676,
    "crazy": 50112,
    "virtual": 32844,
    "aylor": 7167,
    "ixel": 7168,
    "1980": 23664,
    "permission": 7170,
    "Series": 27996,
    "consumer": 49827,
    "closely": 7173,
    "hopes": 7176,
    "array": 18747,
    "Win": 16643,
    "Labour": 32475,
    "spons": 20587,
    "Ire": 48505,
    "pow": 7182,
    "readers": 7183,
    "employment": 28812,
    "creature": 7185,
    "resulting": 7186,
    "accurate": 7187,
    "moments": 7188,
    "argued": 7189,
    "ped": 9124,
    "Tal": 31466,
    "sought": 7194,
    "suffering": 7195,
    "lee": 7197,
    "($": 16763,
    "alian": 7199,
    "Â°": 22074,
    "pra": 7201,
    "bonus": 7202,
    "ko": 41727,
    "acting": 27362,
    "comparison": 7208,
    "smooth": 7209,
    "NAS": 18293,
    "upp": 7211,
    "Joseph": 29458,
    "eping": 7213,
    "Take": 12322,
    "Mid": 22622,
    "sending": 7216,
    "Fall": 24750,
    "dealing": 7219,
    "Organ": 26121,
    "attached": 7223,
    "sees": 7224,
    "%.": 7225,
    "typical": 7226,
    "ART": 24278,
    "finds": 7228,
    "Asia": 38555,
    "umin": 7230,
    "Core": 14055,
    "Ent": 14539,
    "inent": 7233,
    "uce": 7234,
    "Blood": 21659,
    "Never": 12295,
    "emails": 7237,
    "highlight": 7238,
    "confront": 7239,
    "atus": 7240,
    "uted": 7241,
    "unus": 7242,
    "topic": 26652,
    "Adam": 23159,
    "ati": 7246,
    "understood": 7247,
    "TP": 24525,
    "mob": 39949,
    "aa": 7252,
    "Start": 10434,
    "pected": 7254,
    "dedicated": 7256,
    "CA": 8141,
    "uan": 7258,
    "songs": 7259,
    "escription": 7260,
    "tech": 13670,
    "rape": 13484,
    "aside": 7263,
    "grant": 7264,
    "argue": 7267,
    "containing": 38301,
    "schedule": 7269,
    "liberal": 35739,
    "publicly": 7271,
    "heavily": 7272,
    "Ut": 18274,
    "iner": 7274,
    "Section": 16375,
    "Care": 17784,
    "weet": 7277,
    "ls": 43979,
    "âĶĢ": 7280,
    "bes": 12636,
    "ji": 7285,
    "Hit": 17889,
    "ested": 7287,
    "everybody": 7288,
    "Swed": 7289,
    "femin": 33594,
    "facilities": 7291,
    "conven": 7292,
    "anx": 7296,
    "division": 21426,
    "Cam": 21701,
    "Stan": 32140,
    "mates": 27973,
    "explore": 7301,
    "plom": 7302,
    "shares": 7303,
    "pload": 7304,
    "anes": 7305,
    "ideal": 7306,
    "eters": 7307,
    "Base": 14881,
    "plastic": 7309,
    "distinct": 7310,
    "Network": 26245,
    "Seattle": 34007,
    "trading": 7313,
    "ensus": 7314,
    "intend": 14765,
    "exhib": 7316,
    "initially": 7317,
    "Food": 24602,
    "thousand": 7319,
    "Business": 24749,
    "acter": 7321,
    "paragraph": 20360,
    "roughly": 7323,
    "creative": 7325,
    "Conf": 18546,
    "consumption": 7327,
    "films": 7328,
    "agan": 7329,
    "obtain": 7330,
    "tall": 35429,
    "tor": 13165,
    "acknowled": 7333,
    "grown": 22377,
    "alo": 7335,
    "KE": 47134,
    "enders": 7338,
    "taining": 7339,
    "UG": 7340,
    "suicide": 7341,
    "watched": 7342,
    "List": 8053,
    "ali": 34965,
    "rehens": 7345,
    "surrounding": 7346,
    "pip": 7347,
    "flying": 45928,
    "Java": 29584,
    "ordan": 7350,
    "serving": 31293,
    "inations": 7352,
    "sho": 7354,
    "jail": 7356,
    "zy": 7357,
    "1999": 18946,
    "literally": 43819,
    "Sir": 22788,
    "exposed": 7362,
    "lies": 13508,
    "bat": 8664,
    "earned": 39123,
    "Dig": 19511,
    "specified": 23599,
    "Season": 18960,
    "degrees": 7370,
    "centre": 7372,
    "sharing": 21987,
    "winter": 40078,
    "CO": 8220,
    "unw": 7379,
    "fewer": 7380,
    "Mir": 27453,
    "somewhere": 7382,
    "Key": 9218,
    "attacked": 7384,
    "Kir": 7385,
    "domain": 27830,
    "stronger": 7387,
    "penalty": 7389,
    "Script": 12327,
    "declined": 7392,
    "neck": 27235,
    "fraud": 7394,
    "currency": 34415,
    "rising": 22610,
    "RC": 13987,
    "âĢ¦âĢ¦": 7398,
    "Hz": 26109,
    "tab": 8658,
    "talent": 7401,
    "nam": 7402,
    "NBA": 32470,
    "village": 7404,
    "legs": 7405,
    "Next": 10019,
    "acid": 46309,
    "hyd": 15511,
    "800": 10460,
    "involving": 7411,
    "Before": 8421,
    "yesterday": 7415,
    "Source": 8090,
    "terrorist": 42002,
    "sup": 37330,
    "synt": 7419,
    "Saudi": 36939,
    "burg": 15601,
    "visible": 23504,
    "struck": 7425,
    "rison": 7426,
    "awesome": 7427,
    "drawn": 41549,
    "answers": 7429,
    "Girl": 24151,
    "Ram": 33754,
    "threats": 7432,
    "defeat": 7433,
    "osit": 7434,
    "aturally": 7436,
    "enda": 7438,
    "Holy": 33336,
    "%,": 7441,
    "History": 18122,
    "YouTube": 33869,
    "situations": 7445,
    "DNA": 28886,
    "saved": 7448,
    "Item": 9097,
    "recip": 7450,
    "ologist": 7451,
    "faced": 24903,
    "elig": 7453,
    "Li": 32304,
    "uh": 21480,
    "mistake": 7457,
    "Division": 7458,
    "Bell": 36488,
    "symptoms": 7460,
    "Â®": 38852,
    "domin": 7462,
    "falling": 7463,
    "ashes": 29914,
    "matches": 7466,
    "Online": 14439,
    "explanation": 7468,
    "redit": 7470,
    "anymore": 7471,
    "Total": 14957,
    "FOR": 13775,
    "ushed": 7474,
    "letters": 15653,
    "risks": 7476,
    "OK": 11380,
    "reportedly": 7478,
    ":\\": 7479,
    "subjects": 7481,
    "attempted": 7482,
    "ifier": 7483,
    "iana": 7484,
    "unlikely": 7485,
    "Though": 10915,
    "uma": 7487,
    "Invest": 19070,
    "Prin": 47231,
    "ican": 7490,
    "Dar": 32708,
    "Colorado": 41330,
    "aug": 16339,
    "veget": 7494,
    "aos": 7495,
    "ria": 7496,
    "shel": 7497,
    "marked": 23505,
    "spr": 34975,
    "Link": 11280,
    "defe": 7503,
    "Jr": 50123,
    "theme": 43810,
    "passion": 7506,
    "Pen": 25553,
    "info": 10951,
    "izer": 7509,
    "shit": 16211,
    "Civil": 32610,
    "apse": 7512,
    "poly": 35428,
    "component": 42895,
    "Charles": 28711,
    "Ireland": 49752,
    "Prov": 15946,
    "doctors": 7519,
    "granted": 7520,
    "paint": 7521,
    "honor": 7522,
    "smoke": 7523,
    "payments": 7524,
    "primarily": 7525,
    "Kingdom": 7526,
    "atell": 7528,
    "deals": 14302,
    "scheduled": 7530,
    "fundamental": 7531,
    "protein": 48693,
    "newspaper": 7533,
    "clients": 7534,
    "ython": 7535,
    "Date": 10430,
    "feedback": 7538,
    "stretch": 7539,
    "cock": 21517,
    "hotel": 7541,
    "Queen": 32466,
    "sugar": 7543,
    "ju": 14396,
    "milk": 7545,
    "approval": 7546,
    "Live": 18947,
    "equivalent": 7548,
    "efully": 7549,
    "insert": 28463,
    "zona": 7551,
    "extension": 7552,
    "accomp": 7555,
    "Fund": 24553,
    "constantly": 7558,
    "``": 15506,
    "generated": 27568,
    "Action": 12502,
    "Psych": 31923,
    "Tri": 14824,
    "recognize": 7564,
    "vary": 7565,
    "pha": 7566,
    "Ra": 21762,
    "df": 47764,
    "etch": 7569,
    "Soviet": 40408,
    "patterns": 7572,
    "profession": 7573,
    "aning": 7574,
    "Lim": 19352,
    "colors": 7577,
    "Az": 26903,
    "infect": 27816,
    "phenomen": 7581,
    "shell": 29149,
    "puts": 7584,
    "delivery": 7585,
    "brown": 33282,
    "processing": 36948,
    "lights": 8091,
    "essage": 7589,
    "Brook": 45534,
    "Aud": 16353,
    "lation": 7592,
    "industrial": 31130,
    "Brazil": 39190,
    "rous": 7596,
    "ESS": 7597,
    "Luc": 22946,
    "somehow": 7599,
    "proport": 7601,
    "politicians": 7602,
    "indicate": 7603,
    "hole": 13207,
    "techniques": 7605,
    "competitive": 46131,
    "phr": 7607,
    "vo": 13038,
    "istent": 7609,
    "Dream": 30571,
    "campus": 43842,
    "aspects": 7612,
    "helpful": 7613,
    "shield": 26662,
    "orse": 7615,
    "trigger": 46284,
    "tort": 7619,
    "personally": 7620,
    "tag": 12985,
    "keeps": 7622,
    "Video": 10798,
    "bench": 26968,
    "gap": 43554,
    "aire": 7626,
    "east": 23316,
    "recovery": 7628,
    "perial": 7629,
    "profit": 9183,
    "Mic": 25437,
    "colon": 7633,
    "strongly": 7634,
    "allegations": 7636,
    "han": 7637,
    "reporters": 7638,
    "rine": 7640,
    "arget": 7641,
    "andal": 7642,
    "flash": 34167,
    "strict": 7646,
    "parking": 7647,
    "Pakistan": 38485,
    "weird": 7650,
    "Eric": 25004,
    "regions": 7652,
    "Jun": 22396,
    "intellect": 7654,
    "WH": 12418,
    "oding": 7656,
    "ributes": 7657,
    "upid": 7658,
    "Tit": 7659,
    "finger": 35461,
    "oria": 7661,
    "elev": 7662,
    "Field": 15878,
    "conclusion": 7664,
    ";;": 36792,
    "feelings": 7666,
    "extensive": 7667,
    "mixed": 7668,
    "neuro": 7669,
    "vy": 7670,
    "harass": 7671,
    "Circ": 31560,
    "ouch": 7673,
    "territory": 7674,
    "successfully": 37351,
    "ingred": 7677,
    "overwhel": 7678,
    "layer": 29289,
    "allies": 7681,
    "illance": 7682,
    "Three": 12510,
    "bunch": 7684,
    "normally": 7685,
    "networks": 7686,
    "sacr": 7687,
    "CIA": 49732,
    "bles": 7689,
    "chose": 7690,
    "opponents": 7691,
    "regardless": 7692,
    "franch": 7693,
    "pref": 7694,
    "Po": 18833,
    "bridge": 9458,
    "anna": 7697,
    "Silver": 26766,
    "wage": 21482,
    "rior": 7701,
    "radical": 42325,
    "Little": 22253,
    "manip": 7704,
    "secretary": 7705,
    "gang": 28284,
    "DR": 10560,
    "FA": 9677,
    "decent": 7709,
    "Spirit": 41910,
    "uncle": 29942,
    "Development": 41206,
    "investors": 7713,
    "walls": 7714,
    "publish": 7715,
    "generate": 7716,
    "issions": 7717,
    "promote": 7719,
    "cutting": 29753,
    "chest": 46713,
    "drinking": 7722,
    "collected": 7723,
    "hoping": 7725,
    "embr": 7726,
    "gorith": 7727,
    "warned": 7728,
    "instructions": 7729,
    "OG": 34498,
    "Did": 11633,
    "Agency": 7732,
    "gear": 31763,
    "criticism": 7734,
    "Further": 13518,
    "util": 22602,
    "anny": 7737,
    "counsel": 7739,
    "Asian": 43224,
    "reduction": 7741,
    "teaching": 7743,
    "deeply": 7744,
    "iy": 7745,
    "estimates": 7746,
    "choices": 7747,
    "permanent": 7748,
    "inem": 7749,
    "kel": 7750,
    "fasc": 7751,
    "pse": 15838,
    "Low": 20535,
    "Person": 15439,
    "tournament": 7756,
    "stal": 29049,
    "mel": 17694,
    "UST": 7759,
    "Ray": 19591,
    "azi": 7761,
    "contained": 45964,
    "Holly": 7764,
    "wake": 48530,
    "reveal": 7766,
    "processes": 7767,
    "ISIS": 29322,
    "blind": 27461,
    "steel": 44822,
    "Bad": 22069,
    "carefully": 7773,
    "appy": 7774,
    "roit": 7775,
    "gaming": 48616,
    "houses": 20089,
    "Coll": 22667,
    "truck": 7779,
    "erm": 7780,
    "scored": 7781,
    "occas": 7782,
    "sharp": 48554,
    "afraid": 7787,
    "amber": 36505,
    "cific": 7790,
    "scheme": 7791,
    "NC": 8823,
    "Polit": 39866,
    "decline": 7794,
    "1998": 21113,
    "pushing": 7796,
    "possession": 7797,
    "privile": 7798,
    "teachers": 7799,
    "yield": 7800,
    "HA": 14558,
    "Davis": 36462,
    "itled": 7803,
    "########": 7804,
    "Daniel": 19962,
    "acon": 7807,
    "hide": 24717,
    "uten": 7809,
    "colleagues": 7810,
    "principles": 7811,
    "loud": 7812,
    "sin": 31369,
    "Demon": 35477,
    "taught": 7817,
    "terrible": 7818,
    "stuck": 7819,
    "Policy": 36727,
    "implementation": 7822,
    "BBC": 33833,
    "API": 17614,
    "wheel": 22001,
    "allas": 7826,
    "champions": 7827,
    "olars": 7828,
    "repeatedly": 7830,
    "Still": 9590,
    "likes": 7832,
    "asty": 7833,
    "ester": 7834,
    "Catholic": 48919,
    "RL": 45715,
    "bath": 37648,
    "noise": 7838,
    "northern": 7840,
    "magn": 7842,
    "fab": 36434,
    "Ash": 26754,
    "displ": 7845,
    "ticket": 43350,
    "murd": 7847,
    "alongside": 7848,
    "Music": 22648,
    "river": 38291,
    "Steel": 39807,
    "Player": 14140,
    "Mult": 15205,
    "owing": 27120,
    "tur": 36590,
    "Georgia": 41072,
    "iscal": 7860,
    "raction": 7861,
    "cable": 7862,
    "wins": 7864,
    "upcoming": 7865,
    "survive": 7866,
    "inspired": 24194,
    "Education": 41183,
    "statistics": 7869,
    "Foot": 17574,
    "iami": 7871,
    "yellow": 36022,
    "Page": 9876,
    ".-": 7874,
    "Has": 19242,
    "urban": 32679,
    "essel": 7878,
    "\\\"": 19990,
    "quarterback": 7880,
    "register": 30238,
    "Labor": 42230,
    "Family": 24094,
    "variable": 45286,
    "Price": 18124,
    "contem": 7887,
    "thin": 40871,
    "Equ": 23588,
    "gotten": 21646,
    "constit": 7892,
    "tail": 13199,
    "exciting": 7895,
    "Effect": 18610,
    "Spanish": 43584,
    "encourage": 7898,
    "inson": 7899,
    "Ah": 10910,
    "commitment": 7901,
    "CS": 9429,
    "rally": 7903,
    "subsid": 7905,
    "spin": 39706,
    "captured": 7907,
    "innoc": 7909,
    "allegedly": 7910,
    "Come": 16773,
    "artists": 7912,
    "Number": 15057,
    "electronic": 7914,
    "regional": 7915,
    "apes": 44621,
    "wra": 29988,
    "myth": 7918,
    "prise": 7919,
    "Miller": 33253,
    "Creat": 16719,
    "Episode": 23758,
    "bell": 8966,
    "directed": 34762,
    "extract": 7925,
    "sorry": 41599,
    "vice": 28281,
    "agger": 7928,
    "Support": 15514,
    "Iron": 22797,
    "wonderful": 7932,
    "gra": 46784,
    "ione": 7935,
    "ships": 26313,
    "ikes": 7938,
    "Kevin": 23865,
    "itar": 7940,
    "activists": 7941,
    "Arizona": 40732,
    "enth": 7944,
    "Despite": 8332,
    "habit": 7947,
    "ernel": 7948,
    "inqu": 18934,
    "abortion": 32396,
    "void": 19382,
    "explicit": 7952,
    "engaged": 7953,
    "angry": 7954,
    "rating": 8821,
    "frag": 7956,
    "icking": 7958,
    "worried": 7960,
    "obser": 7961,
    "apartment": 7962,
    "GT": 19555,
    "estate": 44146,
    "Constitution": 7965,
    "emon": 7966,
    "Snow": 28974,
    "county": 7968,
    "disag": 7969,
    "Stephen": 24920,
    "immigrants": 7971,
    "Nations": 7973,
    "folks": 7974,
    "gall": 39580,
    "targeted": 7977,
    "stead": 28044,
    "Bon": 20682,
    "Lib": 25835,
    "informed": 35698,
    "120": 10232,
    "idelines": 7984,
    "orough": 7985,
    "driven": 15808,
    "regularly": 7987,
    "basket": 7988,
    "principle": 7989,
    "ocument": 7990,
    "stun": 7991,
    "ibilities": 7992,
    "Roman": 32454,
    "About": 8585,
    "alert": 44598,
    "democracy": 42017,
    "represented": 33469,
    "HS": 18070,
    "cers": 7999,
    "diplom": 8003,
    "rets": 8004,
    "NO": 15285,
    "capture": 8006,
    "Adv": 22856,
    "Ħ¢": 8008,
    "announcement": 8009,
    "Lear": 14961,
    "hook": 25480,
    "purs": 8012,
    "Such": 16678,
    "Camer": 8014,
    "refugees": 8015,
    "Ve": 26979,
    "recognized": 8018,
    "lib": 9195,
    "hadn": 8020,
    "pilot": 8022,
    "ushing": 8023,
    "returning": 8024,
    "trail": 8025,
    "Stone": 34346,
    "routine": 8027,
    "courts": 8028,
    "desper": 8029,
    "friendly": 13120,
    "Italy": 45001,
    "pled": 10137,
    "breath": 8033,
    "studio": 8034,
    "NS": 10896,
    "impressive": 8036,
    "Afghanistan": 8037,
    "fing": 28825,
    "downt": 8039,
    "inking": 8040,
    "Rog": 30417,
    "iary": 8042,
    "aron": 8045,
    "fault": 8046,
    "Nick": 23609,
    "Rose": 31087,
    "Southern": 44993,
    "XX": 21044,
    "isodes": 8052,
    "600": 10053,
    "outcome": 8055,
    "err": 11454,
    "elsewhere": 8057,
    "retire": 8058,
    "pounds": 8059,
    "Global": 22289,
    "communications": 20860,
    "loan": 8063,
    "ratio": 8064,
    "Empire": 8065,
    "gonna": 8066,
    "invent": 8067,
    "DF": 36323,
    "1970": 30986,
    "Common": 17227,
    "promised": 8072,
    "dinner": 8073,
    "Hom": 28718,
    "creates": 8075,
    "operate": 8076,
    "verty": 8077,
    "Jordan": 34522,
    "etime": 8079,
    "sustain": 8080,
    "incredible": 8082,
    "ima": 8083,
    "warrant": 8084,
    "lawsuit": 8087,
    "reviews": 8088,
    "iture": 8089,
    "Ford": 37308,
    "featured": 8096,
    "forever": 8097,
    "poverty": 8098,
    "Pop": 16979,
    "CNN": 18474,
    "azz": 8101,
    "abis": 8102,
    "aching": 8103,
    "laid": 8104,
    "Supp": 15979,
    "filter": 24455,
    "ena": 8107,
    "Community": 20012,
    "creatures": 8109,
    "uction": 8110,
    "Royal": 41861,
    "association": 8112,
    "Connect": 13313,
    "Brad": 30805,
    "âĸĪ": 23287,
    "lers": 8116,
    "Gi": 33704,
    "valuable": 8119,
    "ACK": 8120,
    "Taylor": 29907,
    "liquid": 39250,
    "Attorney": 46319,
    "Carl": 26886,
    "Final": 19006,
    "aga": 8126,
    "Wilson": 37349,
    "Professor": 25031,
    "aka": 22430,
    "incredibly": 8131,
    "rance": 8132,
    "!)": 8133,
    "solutions": 8136,
    "atmosphere": 8137,
    "blame": 8138,
    "umes": 8139,
    "Nob": 21191,
    "umps": 8142,
    "rical": 8143,
    "Putin": 17060,
    "Dest": 24159,
    "oric": 8146,
    "respectively": 8148,
    "wan": 8149,
    "fifth": 43556,
    "âĦ¢": 8151,
    "Cry": 26677,
    "governor": 8153,
    "purchased": 8155,
    "hack": 31153,
    "intense": 8157,
    "obs": 10201,
    "origin": 47103,
    "define": 13086,
    "careful": 8161,
    "***": 17202,
    "shoulder": 8163,
    "tied": 8165,
    "destruction": 8166,
    "oured": 8167,
    "nobody": 8168,
    "ho": 8873,
    "Exper": 20468,
    "tip": 22504,
    "\";": 8172,
    "technique": 8173,
    "jur": 8174,
    "Pok": 8175,
    "bow": 9563,
    "legend": 8177,
    "accord": 8178,
    "busy": 8179,
    "Intel": 24123,
    "hang": 33255,
    "aki": 8182,
    ".]": 8183,
    "âĢĶâĢĶâĢĶâĢĶ": 8184,
    "surgery": 8185,
    "reprodu": 8186,
    "uniform": 8187,
    "scenes": 28123,
    "lisher": 8191,
    "Have": 11980,
    "phia": 8193,
    "crypt": 29609,
    "recon": 8195,
    "scream": 8196,
    "adopted": 8197,
    "scores": 8198,
    "Italian": 45696,
    "BO": 16494,
    "indicated": 8203,
    "entertain": 8204,
    "Text": 8255,
    "iel": 8207,
    "twenty": 8208,
    "engage": 8209,
    "offs": 8210,
    "Pacific": 22933,
    "smile": 8212,
    "personnel": 8213,
    "toler": 8214,
    "doors": 19559,
    "tone": 41527,
    "machines": 8217,
    "entering": 8218,
    "tenance": 8219,
    "Jersey": 8221,
    "forest": 29623,
    "horse": 30527,
    "complaint": 8224,
    "Spring": 30387,
    "yo": 27406,
    "Plus": 17860,
    "eding": 8228,
    "Return": 13615,
    "quarters": 13620,
    "ials": 8231,
    "cow": 9875,
    "academic": 8233,
    "fruit": 34711,
    "1996": 22288,
    "ogether": 8236,
    "wine": 39002,
    "pursu": 8238,
    "Steven": 28292,
    "licens": 8240,
    "clothes": 8242,
    "rection": 8243,
    "squad": 8244,
    "stable": 31284,
    "zens": 8247,
    "uties": 8249,
    "ancer": 8250,
    "keys": 13083,
    "Mu": 33239,
    "complicated": 8253,
    "iger": 8254,
    "absor": 46303,
    "funny": 8258,
    "relief": 8259,
    "Lew": 33450,
    "Cook": 28937,
    "chart": 40926,
    "drawing": 8263,
    "GE": 22319,
    "module": 21412,
    "Bull": 39549,
    "ILL": 8267,
    "salt": 8268,
    "00000000": 27551,
    "ille": 8270,
    "resource": 31092,
    "adelphia": 8273,
    "Bru": 8274,
    "somebody": 8276,
    "participate": 8277,
    "rose": 13698,
    "wered": 8279,
    "muscle": 8280,
    "consent": 8281,
    "continuing": 8282,
    "Guardian": 8283,
    "Order": 18743,
    "regon": 8285,
    "rear": 8286,
    "provision": 8287,
    "liked": 8288,
    "rient": 8289,
    "bra": 16057,
    "meetings": 8292,
    "tox": 8293,
    "convent": 8294,
    "auto": 23736,
    "recording": 8296,
    "Soft": 18380,
    "001": 8298,
    "Roll": 26869,
    "programming": 8300,
    "pic": 16564,
    "proved": 8302,
    "stab": 39029,
    "Ast": 33751,
    "caption": 8305,
    "ulating": 8306,
    "Attack": 27732,
    "newly": 8308,
    "1997": 21498,
    "discipl": 8311,
    "Greek": 44059,
    "edition": 28736,
    "Does": 13921,
    "Box": 14253,
    "ifle": 8316,
    "acket": 8317,
    "passes": 8318,
    "guest": 8319,
    "acceler": 8320,
    "itals": 8321,
    "UD": 43700,
    "authent": 41299,
    "Rest": 19452,
    "oval": 41186,
    "ta": 20486,
    "uine": 8327,
    "armor": 40456,
    "Town": 38097,
    "compat": 8330,
    "inches": 45457,
    "assign": 8333,
    "herent": 8334,
    "prepare": 8335,
    "Meg": 42672,
    "ockey": 8337,
    "depends": 8338,
    "tracks": 46074,
    "lists": 20713,
    "Northern": 40495,
    "alter": 47653,
    "Eastern": 46109,
    "condem": 8346,
    "everywhere": 8347,
    "?'": 8348,
    "affili": 8349,
    "fought": 8350,
    "\":{\"": 8351,
    "mac": 20285,
    "itarian": 8353,
    "scope": 29982,
    "aws": 8356,
    "enjoyed": 8359,
    "nesota": 8360,
    "aggressive": 49639,
    "Story": 11605,
    "recipe": 8364,
    "rarely": 8365,
    "Medical": 37158,
    "angel": 18304,
    "aying": 8369,
    "omething": 8370,
    "subsection": 8371,
    "southern": 8372,
    "frequency": 35324,
    "rete": 8374,
    "rolled": 11686,
    "ults": 8376,
    "Nic": 30403,
    "behalf": 8378,
    "sequence": 43167,
    "abet": 8380,
    "controversial": 8381,
    "comprom": 8382,
    "worker": 28816,
    "mainly": 8384,
    "algorith": 8385,
    "Major": 24206,
    "orce": 8387,
    "organized": 30280,
    "fake": 30706,
    "concluded": 8391,
    "Exec": 23002,
    "rage": 14404,
    "chances": 8395,
    "berry": 8396,
    "Trad": 8397,
    "configuration": 8398,
    "withdraw": 8399,
    "fro": 8400,
    "udes": 8401,
    "Brother": 39461,
    "Brian": 24761,
    "tries": 8404,
    "samples": 8405,
    "bid": 14065,
    "Golden": 32378,
    "photograph": 8408,
    "ifest": 8409,
    "DO": 18227,
    "Parliament": 8411,
    "****************": 8412,
    "contest": 8414,
    "signing": 8415,
    "px": 8416,
    "Zeal": 8417,
    "âĶĢâĶĢ": 8418,
    "exit": 37023,
    "Corpor": 8422,
    "null": 9242,
    "racial": 33001,
    "otted": 8426,
    "Veg": 8427,
    "Reuters": 12637,
    "sword": 30553,
    "pson": 8430,
    "Romney": 42184,
    "aed": 8432,
    "trib": 8433,
    "protocol": 8435,
    "Bi": 23286,
    "Miami": 41191,
    "everal": 8438,
    "shipping": 8440,
    "Amendment": 8441,
    "Howard": 32434,
    "Disc": 15642,
    "Jac": 28821,
    "iamond": 8446,
    "Therefore": 26583,
    "ses": 8448,
    "Princess": 8449,
    "USB": 27155,
    "Anth": 30327,
    "surveillance": 8452,
    "apolog": 46407,
    "owa": 8455,
    "fulf": 8456,
    "js": 44804,
    "luck": 46708,
    "usted": 8459,
    "Â§": 16273,
    "ni": 37628,
    "anticip": 8462,
    "eman": 31184,
    "winner": 39791,
    "silver": 40503,
    "lla": 8466,
    "icity": 8467,
    "unusual": 8468,
    "crack": 8469,
    "ez": 8471,
    "practical": 8472,
    "province": 8473,
    "Place": 27271,
    "priority": 49336,
    "ICE": 23358,
    "describes": 8477,
    "branch": 8478,
    "aska": 8480,
    "missions": 10566,
    "porn": 8483,
    "Turk": 8484,
    "enthus": 8485,
    "fighters": 17114,
    "Detroit": 40404,
    "foundation": 42526,
    "avid": 32450,
    "judgment": 8492,
    "cling": 36331,
    "solve": 8494,
    "Design": 23067,
    "hesis": 8497,
    "Tro": 44095,
    "neutral": 29797,
    "Palestinian": 35969,
    "Hollywood": 8502,
    "advis": 8503,
    "Non": 15419,
    "olis": 8506,
    "reputation": 8507,
    "smell": 8508,
    "bread": 29573,
    "Bul": 33481,
    "Beach": 8511,
    "claiming": 8512,
    "genetic": 8513,
    "technologies": 8514,
    "upgrade": 8515,
    "rows": 15274,
    "developer": 8517,
    "Josh": 23808,
    "Disney": 37338,
    "erved": 8520,
    "ipal": 8521,
    "unex": 8522,
    "barely": 8523,
    "Pub": 14876,
    "illness": 8526,
    "etary": 8527,
    "Bal": 24597,
    "patch": 17147,
    "butt": 43059,
    "stupid": 8531,
    "Dog": 32942,
    "Dallas": 40540,
    "iece": 8535,
    "protests": 8536,
    "chat": 17006,
    "oenix": 8538,
    "parliament": 8540,
    "osexual": 8542,
    "render": 13287,
    "ptions": 8544,
    "Coast": 8545,
    "osa": 8546,
    "Greg": 25025,
    "Management": 48032,
    "bitcoin": 35395,
    "recover": 8551,
    "incorpor": 8552,
    "orne": 8553,
    "Using": 12814,
    "preced": 8555,
    "threatened": 8556,
    "spiritual": 8557,
    "Event": 9237,
    "Fred": 30847,
    "advertising": 34442,
    "improvements": 8561,
    "Custom": 15022,
    "errors": 48277,
    "sensitive": 30176,
    "Navy": 8565,
    "cream": 36277,
    "exclusive": 41195,
    "comprehens": 8569,
    "deleg": 8570,
    "conce": 8571,
    "remem": 8572,
    "structures": 8573,
    "stored": 8574,
    "ND": 25524,
    "1000": 12825,
    "UP": 15958,
    "Budd": 8578,
    "AF": 12341,
    "Academy": 8581,
    "ðŁ": 12520,
    "temporary": 8584,
    "esters": 8586,
    "tickets": 8587,
    "possess": 8588,
    "inch": 11111,
    "oz": 15649,
    "contracts": 8592,
    "unp": 8593,
    "cig": 22683,
    "Kat": 25881,
    "ultural": 8596,
    "asm": 8597,
    "mountain": 8598,
    "Captain": 27898,
    "Spain": 45355,
    "equally": 8603,
    "aters": 8605,
    "rejected": 8606,
    "rix": 8609,
    "transaction": 8611,
    "lessly": 8613,
    "||": 15886,
    "Henry": 32476,
    "provisions": 8617,
    "gained": 8618,
    "directory": 34945,
    "raising": 32741,
    "Sep": 19117,
    "olen": 8622,
    "onder": 8623,
    "console": 41947,
    "bom": 8626,
    "uncertain": 8627,
    "ocking": 8629,
    "measured": 8630,
    "plain": 25638,
    "seats": 8632,
    "dict": 11600,
    "SL": 12419,
    "afe": 8635,
    "estimate": 8636,
    "izon": 8637,
    "athered": 8638,
    "contributed": 8639,
    "episodes": 8640,
    "ommod": 8641,
    "ANT": 8643,
    "250": 9031,
    "viously": 8647,
    "rogen": 8648,
    "terrorism": 19541,
    "movements": 8650,
    "entle": 8651,
    "ounce": 25799,
    "Soul": 36315,
    "prev": 47050,
    "Table": 10962,
    "riors": 8657,
    "suffer": 8659,
    "nerv": 8660,
    "mainstream": 8661,
    "Wolf": 32069,
    "franchise": 8663,
    "demands": 8665,
    "agenda": 8666,
    "dozen": 44932,
    "clinical": 47367,
    "izard": 8669,
    "Op": 18257,
    "td": 41560,
    "visited": 8672,
    "Perhaps": 13710,
    "actor": 11218,
    "delic": 8675,
    "contribute": 8676,
    "inject": 8677,
    "Es": 23041,
    "acco": 8679,
    "listening": 8680,
    "congress": 8681,
    "ependent": 8682,
    "premium": 8683,
    "Irish": 43293,
    "assigned": 8686,
    "Phys": 43215,
    "worldwide": 8688,
    "narrative": 8689,
    "otype": 8690,
    "mont": 40689,
    "Bowl": 8693,
    "Administration": 8694,
    "relation": 49501,
    "EV": 20114,
    "CP": 16932,
    "covers": 8698,
    "certific": 8700,
    "grass": 29815,
    "piracy": 30955,
    "ira": 8704,
    "engineering": 40321,
    "Mars": 43725,
    "unemploy": 8707,
    "Foreign": 33616,
    "stract": 8709,
    "steal": 8711,
    "replied": 8712,
    "ultimate": 44818,
    "titles": 8714,
    "dated": 14567,
    "aus": 8717,
    "hyper": 49229,
    "aku": 8719,
    "officially": 8720,
    "Product": 15667,
    "difficulty": 8722,
    "peror": 8723,
    "resulted": 8724,
    "ribed": 8725,
    "~~~~": 8728,
    "Speed": 22785,
    "Viet": 8730,
    "Barack": 8732,
    "restrictions": 8733,
    "Share": 11649,
    "1995": 21908,
    "itionally": 8736,
    "beauty": 8737,
    "maps": 31803,
    "CR": 9419,
    "Nation": 46108,
    "Cruz": 41811,
    "electricity": 8744,
    "burd": 8746,
    "violation": 8747,
    "usage": 26060,
    "permit": 8749,
    "Chron": 8750,
    "Fant": 8751,
    "naturally": 8752,
    "thrown": 8754,
    "Awoken": 8755,
    "alien": 42690,
    "Hero": 30411,
    "Kent": 42265,
    "Rick": 33048,
    "rike": 8760,
    "pace": 10223,
    "},{\"": 8762,
    "GL": 10188,
    "poison": 8764,
    "Tower": 8765,
    "formal": 8766,
    "alysis": 8767,
    "genuine": 8768,
    "kil": 34553,
    "aver": 9076,
    "procedure": 8771,
    "Prop": 24331,
    "intendo": 8773,
    "Main": 13383,
    "asant": 8775,
    "trained": 35311,
    "Load": 8912,
    "crucial": 8780,
    "FR": 10913,
    "champion": 8783,
    "101": 8949,
    "Conference": 8785,
    "writers": 34422,
    "connections": 8787,
    "okay": 8788,
    "irms": 8789,
    "Rand": 38918,
    "encounter": 8791,
    "Buff": 36474,
    "achieved": 8793,
    "checks": 42116,
    "iscons": 8795,
    "assistant": 8796,
    "whenever": 8797,
    "Access": 15457,
    "Ur": 16692,
    "bin": 9874,
    "clock": 15750,
    "isp": 8802,
    "opher": 8803,
    "borrow": 8804,
    "mad": 9937,
    "personality": 8806,
    "IST": 45790,
    "abama": 8809,
    "gains": 8810,
    "commonly": 8811,
    "terr": 8812,
    "hypot": 8813,
    "rely": 38015,
    "tiss": 8815,
    "isconsin": 8816,
    "ridic": 8817,
    "Oregon": 41243,
    "uncom": 8820,
    "eland": 8822,
    "moon": 22977,
    "annon": 8825,
    "vulnerable": 8826,
    "utive": 8827,
    "ÂłÂłÂłÂł": 22686,
    "Radio": 26093,
    "western": 14197,
    "sect": 15951,
    "Tony": 29387,
    "occurs": 8833,
    "Os": 16748,
    "Hon": 29478,
    "ÃŃ": 8836,
    "vessel": 8837,
    "Scotland": 47230,
    "discrimination": 42723,
    "subsequent": 8840,
    "fantasy": 8842,
    "Shadow": 27447,
    "testim": 8844,
    "WE": 12887,
    "iti": 8846,
    "ras": 8847,
    "boat": 24482,
    "marks": 14306,
    "ordinary": 35947,
    "representative": 8852,
    "petition": 8853,
    "adventure": 8855,
    "ignore": 46430,
    "Philadelphia": 42349,
    "Sav": 47362,
    "VP": 23342,
    "factory": 8860,
    "tasks": 8861,
    "depression": 8862,
    "zed": 8863,
    "................................": 8864,
    "Storm": 32173,
    "cogn": 8866,
    "eligible": 31595,
    "reducing": 8868,
    "striking": 8871,
    "dollar": 22569,
    "OV": 8874,
    "instrument": 8875,
    "philosophy": 8876,
    "Moore": 40049,
    "Avenue": 8878,
    "ruled": 8879,
    "Front": 25886,
    "INE": 8881,
    "Mah": 40936,
    "scenario": 8883,
    "NASA": 29998,
    "enorm": 8885,
    "debut": 8886,
    "tea": 8887,
    "absence": 8889,
    "leep": 8892,
    "tables": 8893,
    "Heart": 28541,
    "MI": 15789,
    "VD": 8898,
    "chairman": 8900,
    "pump": 8901,
    "rapidly": 8902,
    "vi": 25357,
    "substantial": 8904,
    "EP": 14724,
    "chant": 33541,
    "ilipp": 8908,
    "Santa": 42694,
    "riers": 8910,
    "anchester": 8911,
    "Case": 20448,
    "saving": 29336,
    "AFP": 17449,
    "erning": 8917,
    "ounced": 8918,
    "Minnesota": 45670,
    "Was": 16973,
    "recru": 8921,
    "assessment": 8922,
    "Bron": 18760,
    "UE": 27595,
    "dynamic": 8925,
    "furn": 8926,
    "ulator": 8927,
    "propag": 8928,
    "accommod": 8930,
    "stack": 25558,
    "Sus": 30746,
    "reven": 8934,
    "Godd": 8935,
    "Zealand": 8936,
    "brut": 8938,
    "perpet": 8939,
    "hardly": 8941,
    "Burn": 29053,
    "ãĤ¹": 8943,
    "sty": 34365,
    "transactions": 8945,
    "gate": 10494,
    "screens": 8947,
    "submitted": 8948,
    "languages": 8950,
    "ught": 8951,
    "emen": 8952,
    "falls": 23348,
    "coc": 8954,
    "Ĥ¬": 8955,
    "strikes": 8956,
    "pa": 14187,
    "deliber": 8958,
    "relax": 8960,
    "annels": 8961,
    "Senator": 29774,
    "extrem": 8963,
    "Deb": 16587,
    "disorder": 8967,
    "iOS": 35742,
    "locked": 24162,
    "emissions": 8971,
    "shortly": 8972,
    "\"]": 8973,
    "Judge": 29511,
    "Sometimes": 15468,
    "rival": 43171,
    "dust": 48859,
    "reaching": 30771,
    "File": 9220,
    "Â¯Â¯Â¯Â¯": 8980,
    "inois": 8981,
    "Jason": 26497,
    "satell": 8983,
    "aret": 8984,
    "stations": 8985,
    "agric": 8986,
    "Technology": 44893,
    "Unfortunately": 13898,
    "Children": 26829,
    "applies": 8991,
    "asted": 8992,
    "ailability": 8994,
    "Damage": 22022,
    "compare": 8996,
    "Standard": 23615,
    "aimed": 8998,
    "Ba": 34458,
    "anguage": 9000,
    "regulation": 27727,
    "jury": 21871,
    "airport": 9003,
    "sections": 23946,
    "Prince": 35784,
    "emed": 9006,
    "medicine": 9007,
    "hitting": 48320,
    "spark": 9009,
    "olves": 9010,
    "foods": 9013,
    "replacement": 9014,
    "chicken": 9015,
    "lowest": 9016,
    "minds": 9017,
    "involves": 9018,
    "ui": 9019,
    "arrang": 9020,
    "procedures": 9021,
    "Which": 13828,
    "iversary": 9023,
    "bills": 9024,
    "improvement": 9025,
    "inev": 9026,
    "expectations": 9027,
    "intellectual": 9028,
    "spaces": 9029,
    "mechanism": 9030,
    "Ze": 36056,
    "Tenn": 43139,
    "Balt": 41312,
    "barrel": 9036,
    "static": 12708,
    "mann": 9038,
    "tips": 41315,
    "handling": 9041,
    "cus": 9042,
    "oded": 9043,
    "ilton": 9044,
    "iry": 9045,
    "journalists": 9046,
    "ourse": 9047,
    "comic": 9048,
    "nomine": 9049,
    "ITY": 9050,
    "versus": 9051,
    "loop": 26268,
    "surf": 9053,
    "Indust": 35848,
    "Hunter": 38803,
    "beliefs": 9056,
    "isan": 9057,
    "setup": 40406,
    "brew": 11269,
    "computers": 9061,
    "},\"": 9063,
    "Medal": 9064,
    "taxp": 9065,
    "displayed": 9066,
    "grav": 9067,
    "fiscal": 9068,
    "Moscow": 49757,
    "Kong": 9071,
    "Centre": 9072,
    "cameras": 9073,
    "Mrs": 27034,
    "Hay": 31306,
    "Kelly": 34831,
    "py": 12972,
    "requirement": 9079,
    "entitled": 9080,
    "ombie": 9081,
    "shadow": 19106,
    "agic": 9083,
    "Ak": 33901,
    "elite": 9085,
    "divided": 9086,
    "heading": 33878,
    "copies": 9088,
    "losses": 9089,
    "vit": 9090,
    "ked": 9091,
    "Bry": 9092,
    "Steam": 19109,
    "reporter": 9095,
    "heim": 9096,
    "superior": 9098,
    "erent": 9100,
    "Ã¶": 9101,
    "therapy": 9102,
    "peak": 36729,
    "Model": 17633,
    "gam": 28483,
    "zer": 9107,
    "ritten": 9108,
    "responses": 9109,
    "consideration": 9110,
    "Bible": 9111,
    "loyal": 9112,
    "instant": 9113,
    "Forest": 34605,
    "Ã¼": 9116,
    "extend": 9117,
    "convicted": 9118,
    "founder": 15454,
    "convin": 9120,
    "Oak": 42426,
    "scholars": 9123,
    "overse": 9125,
    "Ark": 42007,
    "Â·": 14128,
    "LA": 13534,
    "md": 45243,
    "Latin": 49022,
    "imental": 9134,
    "CPU": 36037,
    "substance": 9136,
    "minority": 9137,
    "manufacturing": 9138,
    "ocolate": 9140,
    "attended": 9141,
    "Manager": 13511,
    "rations": 9143,
    "appreciate": 9144,
    "omy": 9145,
    "GBT": 9146,
    "idency": 9147,
    "BL": 9878,
    "guarantee": 9149,
    "ocean": 9151,
    "clude": 9152,
    "headed": 15353,
    "tape": 9154,
    "loose": 9155,
    "logic": 9156,
    "proven": 42874,
    "spir": 45564,
    "admit": 9159,
    "isa": 9160,
    "investigate": 9161,
    "1994": 22666,
    "sylv": 9163,
    "Lost": 31042,
    "cest": 9165,
    "requested": 9167,
    "windows": 28457,
    "PokÃ©": 41386,
    "Without": 16249,
    "behaviour": 9172,
    "reader": 46862,
    "hung": 43274,
    "Keep": 15597,
    "roles": 9176,
    "implemented": 9177,
    "blank": 27190,
    "serves": 9179,
    "Jay": 30568,
    "cited": 9181,
    "Friend": 23331,
    "apon": 9184,
    "repair": 49932,
    "arrass": 9187,
    "critics": 9188,
    "adi": 9189,
    "Father": 34823,
    "shout": 9191,
    "fool": 9192,
    "producing": 36866,
    "rounds": 9196,
    "circle": 45597,
    "prepar": 9198,
    "submit": 46002,
    "morrow": 9201,
    "ãĥ«": 9202,
    "vital": 9204,
    "atern": 9205,
    "password": 28712,
    "publication": 9207,
    "prominent": 9208,
    "speaks": 9209,
    "bars": 34046,
    "deeper": 9211,
    "Mill": 22603,
    "ported": 49702,
    "wid": 28029,
    "butter": 9215,
    "smoking": 48783,
    "indicates": 9217,
    "ropri": 9219,
    "alling": 9221,
    "asting": 9222,
    "Rus": 35313,
    "adj": 41255,
    "aval": 37441,
    "presum": 9227,
    "burgh": 9228,
    "onic": 9229,
    "fur": 38916,
    "polls": 9231,
    "ika": 9232,
    "secondary": 38238,
    "monster": 39050,
    "igs": 9235,
    "Current": 11297,
    "ownership": 9238,
    "endar": 9239,
    "arrive": 9240,
    "Tax": 27017,
    "Priv": 20184,
    "thro": 26110,
    "kiss": 41304,
    "upset": 9247,
    "angle": 9848,
    "itches": 9249,
    "ector": 9250,
    "ologists": 9251,
    "Galaxy": 9252,
    "corruption": 46260,
    "hint": 9254,
    "Hospital": 9256,
    "greatly": 9257,
    "begun": 9258,
    "esy": 9259,
    "soil": 9260,
    "Anton": 9261,
    "maintenance": 9262,
    "ãĥ©": 9263,
    "dozens": 9264,
    "humanity": 9265,
    "Alabama": 49177,
    "aping": 9269,
    "sylvania": 9270,
    "lah": 9271,
    "gathered": 9272,
    "GA": 14545,
    "attacking": 9274,
    "Square": 48011,
    "arbit": 9277,
    "ictions": 9278,
    "Wisconsin": 49097,
    "dance": 9280,
    "Saint": 48615,
    "archy": 9282,
    "baseball": 9283,
    "contributions": 9284,
    "literature": 9285,
    "exha": 9286,
    "perty": 9287,
    "bab": 9289,
    "container": 34924,
    "fallen": 9292,
    "websites": 9293,
    "bottle": 9294,
    "Sac": 38318,
    "breast": 9296,
    "veteran": 9298,
    "interviews": 9299,
    "Ale": 37474,
    "banned": 9301,
    "engers": 9302,
    "Revolution": 50237,
    "inth": 9304,
    "concerning": 9305,
    "IVE": 9306,
    "expenses": 9307,
    "Matthew": 25372,
    "Columbia": 9309,
    "ds": 9310,
    "istance": 9311,
    "entity": 26858,
    "...\"": 35713,
    "reliable": 9314,
    "paralle": 37083,
    "Christians": 9316,
    "opinions": 9317,
    "indu": 10259,
    "compete": 9320,
    "thorough": 9321,
    "employed": 36266,
    "establishment": 44390,
    "igen": 9324,
    "Cro": 35403,
    "lawyers": 9326,
    "Station": 12367,
    "TE": 13368,
    "Lind": 43410,
    "Pur": 30026,
    "itary": 9331,
    "efficiency": 45888,
    "âĢĲ": 9333,
    "Ly": 31633,
    "mask": 27932,
    "disaster": 9336,
    "ERE": 9338,
    "esis": 9339,
    "Hold": 26807,
    "casual": 9341,
    "bled": 9342,
    "enabled": 25616,
    "Environment": 31441,
    "Intelligence": 9345,
    "iper": 9346,
    "Map": 13912,
    "BE": 12473,
    "emerged": 9349,
    "isdom": 9350,
    "cabin": 9351,
    "registration": 9352,
    "fingers": 9353,
    "roster": 9354,
    "framework": 30604,
    "Doctor": 37564,
    "etts": 9357,
    "transportation": 9358,
    "awareness": 47812,
    "attempting": 9361,
    "Store": 22658,
    "ÃĥÃĤÃĥÃĤÃĥÃĤÃĥÃĤ": 9364,
    "Know": 23812,
    "defence": 9366,
    "scan": 35836,
    "Ten": 24893,
    "Chair": 43189,
    "PH": 11909,
    "Atlanta": 43482,
    "fucking": 9372,
    "answered": 31966,
    "bn": 9374,
    "Kar": 37753,
    "categories": 9376,
    "rational": 20310,
    "cust": 9378,
    "robot": 9379,
    "correctly": 9380,
    "gif": 27908,
    "graphics": 9382,
    "mic": 12314,
    "grounds": 40520,
    "Opp": 27524,
    "iate": 9386,
    "distributed": 9387,
    "sanctions": 9388,
    "challenging": 9389,
    "uto": 9390,
    "ingredients": 9391,
    "invited": 9392,
    "founded": 27060,
    "Requ": 16844,
    "bowl": 36859,
    "brothers": 9397,
    "Ha": 23303,
    "IO": 24418,
    "wages": 9400,
    "imore": 9401,
    "ocial": 9402,
    "seed": 28826,
    "atively": 9404,
    "addresses": 9405,
    "Iowa": 45186,
    "abeth": 9407,
    "attitude": 9408,
    "isd": 9409,
    "mole": 9411,
    "discovery": 9412,
    "yard": 12699,
    "supplies": 9416,
    "elling": 9417,
    "distingu": 9418,
    "recept": 9420,
    "swim": 9422,
    "Yeah": 10995,
    "gal": 13528,
    "interact": 9427,
    "ESP": 9428,
    "amps": 45796,
    "convinced": 9431,
    "objective": 9432,
    "dish": 9433,
    "Photos": 21197,
    "lad": 9717,
    "downtown": 9436,
    "inction": 9438,
    "tomorrow": 9439,
    "COM": 9858,
    "survival": 9441,
    "settlement": 9443,
    "Xbox": 43377,
    "SM": 12310,
    "argo": 9448,
    "eness": 9449,
    "ethnic": 38546,
    "bered": 9451,
    "Tok": 19042,
    "incent": 42816,
    "Command": 21575,
    "maintained": 9456,
    "breaks": 30058,
    "atar": 9459,
    "Finally": 11158,
    "unicip": 9462,
    "Ont": 45984,
    "recognition": 9465,
    "*/": 16208,
    "Pers": 30946,
    "welf": 9468,
    "addressed": 9469,
    "Kansas": 43451,
    "virus": 9471,
    "whereas": 9472,
    "papers": 40491,
    "rams": 9474,
    "Ministry": 9475,
    "pleasure": 9476,
    "acquired": 9477,
    "duration": 32257,
    "jpg": 9479,
    "calm": 9480,
    "NHL": 9481,
    "burning": 44313,
    "folder": 43551,
    "icked": 9484,
    "Py": 20519,
    "Illinois": 9486,
    "Goddess": 9488,
    "performing": 37440,
    "welfare": 9490,
    "jar": 17379,
    "enhance": 9494,
    "notion": 9495,
    "fare": 14505,
    "ypes": 9497,
    "Area": 30547,
    "cannabis": 9499,
    "Diego": 9500,
    "fs": 43458,
    "Manchester": 40744,
    "inite": 9504,
    "covering": 9505,
    "Sound": 21369,
    "1960": 38503,
    "zing": 9510,
    "citizen": 9511,
    "phones": 9708,
    "ignored": 9514,
    "Object": 10267,
    "upload": 25850,
    "modified": 41771,
    "rooms": 9649,
    "iah": 9520,
    "heast": 9522,
    "achus": 9523,
    "suggesting": 9524,
    "âĢĭ": 20126,
    "grade": 9559,
    "clothing": 9528,
    "rh": 17179,
    "Han": 29919,
    "unity": 14111,
    "encing": 9532,
    "Austin": 40245,
    "secution": 9534,
    "Qual": 46181,
    "heaven": 9538,
    "stages": 9539,
    "wedd": 9540,
    "ificial": 9542,
    "Imm": 24675,
    "Ho": 28900,
    "ieties": 9545,
    "phrase": 34675,
    "brill": 9547,
    "actory": 9548,
    "providers": 9549,
    "silence": 9550,
    "aer": 25534,
    "AI": 20185,
    "Adventure": 48289,
    "platforms": 9554,
    "demonstrated": 9555,
    "interf": 9556,
    "ington": 9557,
    "races": 9558,
    "ultane": 9560,
    "Through": 15046,
    "flavor": 9565,
    "historic": 31304,
    "gov": 9567,
    "colour": 49903,
    "viewed": 9569,
    "Email": 15333,
    "elcome": 9571,
    "intervention": 9572,
    "diversity": 9573,
    "periods": 9574,
    "reverse": 50188,
    "Very": 16371,
    "quote": 22708,
    "Left": 18819,
    "screw": 9580,
    "landing": 9581,
    "pill": 27215,
    "wet": 9583,
    "protesters": 9584,
    "repeat": 44754,
    "aved": 9586,
    "erk": 9587,
    "salary": 9588,
    "Pennsylvania": 9589,
    "mayor": 9591,
    "kitchen": 9592,
    "featuring": 9593,
    "Museum": 9594,
    "Tournament": 9595,
    "Fal": 41129,
    "servers": 9597,
    "UC": 14417,
    "anybody": 9599,
    "img": 33705,
    "Trade": 35965,
    "ixture": 9602,
    "theless": 9603,
    "finance": 9604,
    "closing": 9605,
    "Patri": 9606,
    "iac": 9607,
    "abel": 9608,
    "orous": 9610,
    "firms": 9611,
    "una": 9613,
    "embarrass": 9614,
    "ulse": 9615,
    "letting": 9616,
    "threw": 9617,
    "iley": 9618,
    "channels": 9619,
    "lan": 26992,
    "Vegas": 9621,
    "sear": 9622,
    "fantastic": 9623,
    "arre": 9624,
    "uzzle": 9625,
    "Der": 28532,
    "swing": 46737,
    "sheet": 21760,
    "ogan": 9632,
    "variables": 9633,
    "Tech": 17760,
    "spoken": 19842,
    "achel": 9636,
    "Da": 26531,
    "Mountain": 9638,
    "loaded": 14578,
    "footage": 9640,
    "unl": 9642,
    "Phoenix": 36422,
    "throwing": 9644,
    "firing": 9645,
    "tracking": 36280,
    "width": 10394,
    "struggling": 9648,
    "otion": 9650,
    "monthly": 9651,
    "Server": 10697,
    "eggs": 9653,
    "MC": 13122,
    "1993": 24465,
    "hired": 9657,
    "stayed": 9658,
    "Allen": 39989,
    "stro": 20661,
    "Turkish": 42872,
    "fabric": 9664,
    "isting": 9665,
    "Dom": 24510,
    "dates": 19581,
    "pron": 31186,
    "basketball": 21265,
    "lucky": 9670,
    "Arabia": 9671,
    "assumed": 9672,
    "esty": 9673,
    "affairs": 9674,
    "glad": 9675,
    "Indeed": 17854,
    "Word": 26449,
    "joining": 40044,
    "ifice": 9680,
    "pread": 9681,
    "irts": 9682,
    "Select": 17563,
    "populations": 9684,
    "nose": 9686,
    "complaints": 9687,
    "scoring": 46536,
    "mining": 45374,
    "visitors": 9692,
    "damaged": 9694,
    "characteristics": 9695,
    "Pent": 9696,
    "Six": 21447,
    "flags": 33152,
    "Brew": 44029,
    "////": 9705,
    "execution": 9706,
    "joke": 9707,
    "testimony": 9709,
    "obst": 9710,
    "QL": 9711,
    "Cut": 26254,
    "studied": 9713,
    "Nintendo": 32348,
    "icket": 9715,
    "NBC": 13175,
    "Bra": 42333,
    "Moh": 38443,
    "kernel": 33885,
    "overwhelming": 9721,
    "applicable": 9723,
    "Cond": 25559,
    "roads": 21372,
    "Block": 12235,
    "odge": 9728,
    "commands": 9729,
    "offices": 9730,
    "veland": 9731,
    "tut": 9732,
    "receiver": 9733,
    "Fro": 9734,
    "shopping": 9735,
    "iP": 9736,
    "Stre": 30611,
    "ABC": 24694,
    "entertainment": 9739,
    "Bow": 39961,
    "orted": 9741,
    "reads": 40779,
    "Collect": 31337,
    "âĪĴ": 14095,
    "Capital": 39315,
    "ederation": 9748,
    "employer": 9749,
    "involvement": 9750,
    "anxiety": 9751,
    "alia": 9752,
    "roof": 9753,
    "Among": 14311,
    "Democrat": 9755,
    "stats": 34242,
    "Vill": 42074,
    "constitutional": 18789,
    "referring": 9759,
    "itty": 9760,
    "tackle": 36346,
    "outube": 9762,
    "backed": 17078,
    "Hong": 48559,
    "Broad": 30507,
    "ele": 11129,
    "Ott": 49092,
    "1992": 23847,
    "achusetts": 9770,
    "defeated": 9772,
    "esp": 15024,
    "seemingly": 9775,
    "Jenn": 35994,
    "Kurd": 9778,
    "gene": 9779,
    "discount": 9780,
    "ECT": 9782,
    "();": 13979,
    "clubs": 9784,
    "sid": 30255,
    "Marsh": 41984,
    "Eag": 9789,
    "idespread": 9790,
    "beings": 9791,
    "FT": 19446,
    "introduction": 9793,
    "Change": 19400,
    "ARD": 9795,
    "110": 11442,
    "adows": 9797,
    "ierce": 9798,
    "meal": 28208,
    "Bang": 43984,
    "lahoma": 9802,
    "ranks": 9803,
    "????": 9805,
    "collapse": 9807,
    "opens": 44813,
    "echo": 30328,
    "soph": 9810,
    "racist": 41131,
    "enormous": 9812,
    "waves": 32569,
    "tap": 44335,
    "comprehensive": 9815,
    ".--": 9816,
    "Roy": 32027,
    "farmers": 9818,
    "Related": 19809,
    "aired": 18530,
    "rones": 9821,
    "Crim": 9822,
    "proportion": 9823,
    "designs": 9824,
    "negotiations": 9825,
    "virtually": 9826,
    "Batman": 37039,
    "warn": 40539,
    "legitimate": 9829,
    "mate": 16133,
    "convention": 9831,
    ",,": 9832,
    "netic": 9833,
    "SD": 10305,
    "consistently": 9835,
    "compensation": 9836,
    "punishment": 9837,
    "tie": 36224,
    "Bureau": 9840,
    "irlf": 9841,
    "Bu": 38374,
    "Aren": 43199,
    "Philipp": 49680,
    "knife": 48810,
    "memories": 9846,
    "Ross": 38328,
    "Thunder": 45713,
    "rend": 10920,
    "Tour": 39152,
    "counts": 9853,
    "sung": 23568,
    "Imp": 26950,
    "educational": 9856,
    "accessible": 33780,
    "drew": 9859,
    "yer": 9860,
    "amine": 9862,
    "ORT": 9863,
    "OB": 25334,
    "IB": 34782,
    "trials": 9867,
    "ogy": 9868,
    "Trust": 33814,
    "preferred": 9871,
    "irlfriend": 9872,
    "Nev": 43555,
    "signature": 9877,
    "700": 13037,
    "retired": 9880,
    "bytes": 33661,
    "neighb": 9882,
    "Legend": 21351,
    "devast": 9884,
    "suspected": 9885,
    "isons": 9886,
    "PokÃ©mon": 46602,
    "capabilities": 9889,
    "revel": 9890,
    "cheese": 9891,
    "dy": 20268,
    "igrant": 9893,
    "failing": 9894,
    "bits": 10340,
    "Heroes": 9896,
    "Ghost": 32001,
    "Scient": 23010,
    "appointed": 32924,
    "uri": 9900,
    "institution": 9901,
    "expanded": 9902,
    "greg": 9903,
    "monitoring": 9904,
    "podcast": 46032,
    "coalition": 9906,
    "stolen": 9909,
    "Sab": 39646,
    "stops": 9911,
    "holiday": 37689,
    "intr": 9913,
    "LGBT": 37701,
    "warming": 48133,
    "Anderson": 42991,
    "producer": 9920,
    "accuracy": 9922,
    "Marvel": 38864,
    "izabeth": 9924,
    "Patrick": 32718,
    "mony": 9926,
    "mini": 45313,
    "acles": 9928,
    "overt": 9929,
    "membership": 9931,
    "Ven": 37522,
    "exch": 9933,
    "removal": 9934,
    "Dave": 27984,
    "TY": 24412,
    "Find": 16742,
    "adequ": 16515,
    "teeth": 9941,
    "emotion": 9942,
    "perm": 16321,
    "solely": 9944,
    "db": 20613,
    "extraord": 9946,
    "IGHT": 9947,
    "guidelines": 9949,
    "dying": 9950,
    "suspended": 9951,
    "Premier": 9952,
    "Anthony": 32697,
    "elve": 9954,
    "dad": 47984,
    "Eth": 40226,
    "Football": 37316,
    "abandoned": 9958,
    "<<": 16791,
    "march": 9960,
    "horror": 9961,
    "âĢ¦\"": 46385,
    "childhood": 9963,
    "campaigns": 9964,
    "lunch": 9965,
    "Albert": 42590,
    "âĸĪâĸĪ": 9968,
    "ounding": 9969,
    "bone": 15992,
    "aders": 9972,
    "Flash": 30670,
    "Drive": 24825,
    "tonight": 9975,
    "wars": 9976,
    "compe": 9981,
    "orious": 9982,
    "Staff": 31449,
    "discussions": 9984,
    "Protection": 9985,
    "Jam": 30380,
    "criteria": 9987,
    "installation": 9988,
    "accomplish": 9989,
    "izza": 9990,
    "publisher": 9991,
    "rescue": 9992,
    "Try": 23433,
    "ULL": 9994,
    "Som": 9995,
    "Hop": 23483,
    "oret": 9997,
    "ths": 9998,
    "ordon": 9999,
    "pocket": 31991,
    "Inv": 19904,
    "Download": 10472,
    "Crime": 45580,
    "bene": 10004,
    "Guide": 47889,
    "Assembly": 49670,
    "parameters": 10007,
    "IE": 28157,
    "Alexander": 38708,
    "concert": 48415,
    "Sche": 27054,
    "shoes": 10012,
    "visiting": 10013,
    "recall": 10014,
    "bub": 46176,
    "rural": 10016,
    "concrete": 10017,
    "Ros": 35740,
    "loans": 10021,
    "Shield": 33651,
    "trem": 10023,
    "hemat": 10024,
    "kg": 14211,
    "Harris": 41589,
    "isition": 10027,
    "Move": 21774,
    "fate": 10030,
    "Cho": 22164,
    "tired": 10032,
    "principal": 10033,
    "iences": 10035,
    "athy": 10036,
    "sevent": 10037,
    "mood": 10038,
    "strategic": 10039,
    "diseases": 10040,
    "forum": 27302,
    "tempor": 10042,
    "headquarters": 10043,
    "ige": 10045,
    "flix": 10046,
    "guitar": 10047,
    "releases": 10050,
    "roph": 10051,
    "================================": 10052,
    "Continue": 29453,
    "igate": 10055,
    "Crit": 18559,
    "disabled": 47730,
    "unexpected": 10059,
    "ithub": 10060,
    "unclear": 10061,
    "Est": 22362,
    "contrad": 10063,
    "strategies": 10064,
    "ventures": 33787,
    "passage": 10066,
    "AME": 10067,
    "improving": 10068,
    "reveals": 10069,
    "decrease": 10070,
    "ova": 10071,
    "annoy": 10072,
    "Short": 16438,
    "Library": 23377,
    "cyber": 10075,
    "nell": 10076,
    "Hur": 42633,
    "CB": 23199,
    "photograp": 10079,
    "UI": 12454,
    "sed": 36622,
    "diverse": 10084,
    "encouraged": 10085,
    "conspiracy": 10086,
    "birds": 32002,
    "operator": 46616,
    "handful": 10089,
    "classified": 31691,
    "?)": 41349,
    "dramatic": 10092,
    "investigators": 10093,
    "ito": 10094,
    "widespread": 10095,
    "Room": 41178,
    "----------------------------------------------------------------": 16529,
    "collective": 10098,
    "journalist": 10099,
    "String": 10903,
    "temperatures": 10101,
    "ila": 10102,
    "guid": 10103,
    "inspect": 10104,
    "missile": 10105,
    "Mayor": 37396,
    "manual": 10107,
    "simultane": 10108,
    "ratings": 10109,
    "suck": 10110,
    "universal": 40082,
    "pharm": 10113,
    "disrupt": 10114,
    "iano": 10115,
    "AV": 14661,
    "statist": 10118,
    "olds": 44979,
    "Walker": 39950,
    "php": 39347,
    "undert": 10122,
    "Las": 46898,
    "ishop": 10124,
    "ntil": 10125,
    "reshold": 10126,
    "Whether": 15354,
    "deny": 10129,
    "Cloud": 18839,
    "provider": 10131,
    "surviv": 10132,
    "Update": 10260,
    "mistakes": 10135,
    "rity": 10138,
    "node": 17440,
    "Massachusetts": 10140,
    "ools": 10141,
    "lication": 10142,
    "fails": 10143,
    "emale": 10144,
    "ori": 22812,
    "backs": 12983,
    "shirt": 15600,
    "NAT": 34259,
    "waters": 41555,
    "elson": 10151,
    "ease": 10152,
    "scar": 13034,
    "contents": 10154,
    "contribution": 10156,
    "shr": 36007,
    "handed": 13638,
    "stability": 10159,
    "trave": 10160,
    "mirror": 10162,
    "123": 17031,
    "weigh": 10164,
    "fiction": 24046,
    "ouver": 10166,
    "istant": 10167,
    "rition": 10168,
    "Fed": 42268,
    "physically": 10170,
    "stake": 10171,
    "Article": 14906,
    "Arc": 24021,
    "Lewis": 40330,
    "Mind": 28478,
    "demonstrate": 10176,
    "profits": 31504,
    "omic": 10179,
    "olid": 10180,
    "battles": 10181,
    "drives": 10182,
    "eastern": 10183,
    "Sony": 32895,
    "!!!": 10185,
    "aration": 10186,
    "vard": 10187,
    "portation": 10189,
    "lawmakers": 10191,
    "protecting": 10192,
    "EPA": 40906,
    "yeah": 43669,
    "shame": 10195,
    "olph": 10196,
    "xit": 10198,
    "attach": 47348,
    "representing": 10200,
    "Utah": 44350,
    "iffs": 10203,
    "Freedom": 38885,
    "Ã³": 10205,
    "AK": 15837,
    "incidents": 10207,
    "itage": 10208,
    "viewers": 10209,
    "cd": 22927,
    "mouse": 35888,
    "clar": 10212,
    "accordance": 10213,
    "bot": 13645,
    "Summer": 33560,
    "innocent": 10218,
    "initiative": 10219,
    "ols": 10220,
    "________________________________": 10221,
    "spots": 10222,
    "conventional": 10224,
    "corporations": 10225,
    "blocked": 10226,
    "attered": 10228,
    "refers": 10229,
    "buck": 27041,
    "Digital": 27640,
    "topics": 10233,
    "TF": 24958,
    "Äģ": 10235,
    "brid": 38265,
    "reement": 10237,
    "underlying": 10238,
    "Member": 27608,
    "investigating": 10240,
    "pregnancy": 10241,
    "touchdown": 10242,
    "Band": 31407,
    "Caller": 10244,
    "instances": 10245,
    "PP": 21082,
    "1991": 24529,
    "Cold": 34312,
    "fears": 10251,
    "remarks": 10252,
    "ĨĴ": 10253,
    "atal": 10254,
    "experiments": 10256,
    "ipt": 10257,
    "ancouver": 10264,
    "judges": 10266,
    "stere": 10268,
    "umbn": 10269,
    "participation": 10270,
    "Stars": 29366,
    "Jere": 31579,
    "weekly": 45291,
    "Ban": 30457,
    "conversations": 10275,
    "Pitt": 47627,
    "uz": 10277,
    "Indiana": 49153,
    "Kick": 45390,
    "infection": 10280,
    "heroes": 10281,
    "settled": 10282,
    "strip": 36311,
    "hal": 14201,
    "dump": 39455,
    "Sci": 10286,
    "references": 10288,
    "URL": 21886,
    "Bridge": 37385,
    "wanting": 10291,
    "exclus": 10293,
    "Meanwhile": 11214,
    "mn": 10295,
    "gentle": 10296,
    "maker": 16009,
    "senal": 10298,
    "Gro": 42921,
    "ouri": 10300,
    "Rain": 31443,
    "Alliance": 10302,
    "lift": 26282,
    "ela": 10304,
    "Cleveland": 10306,
    "ranked": 28282,
    "stadium": 10308,
    "deadly": 10309,
    "ä¸": 10310,
    "riding": 10311,
    "aria": 10312,
    "Armor": 31512,
    "documentation": 10314,
    "Greece": 10315,
    "reek": 10316,
    "lens": 10317,
    "Sa": 33890,
    "gross": 47181,
    "Emer": 32779,
    "agers": 10321,
    "Dub": 37590,
    "Rh": 38576,
    "AMD": 28075,
    "arrival": 10325,
    "desert": 10326,
    "supplement": 10327,
    "Resp": 19309,
    "knee": 10329,
    "margin": 36153,
    "font": 10369,
    "ogg": 10332,
    "Pir": 46772,
    "Prom": 24129,
    "ivals": 10336,
    "intake": 10337,
    "differently": 10338,
    "ugs": 10339,
    "cluded": 10341,
    "searching": 10342,
    "Du": 35660,
    "umble": 10344,
    "functional": 45124,
    "Baltimore": 46139,
    "Could": 23722,
    "desired": 10348,
    "circuit": 10349,
    "Lyn": 37207,
    "GO": 11230,
    "False": 25101,
    "repre": 10353,
    "':": 10354,
    "alties": 10355,
    "minim": 10356,
    "drove": 10357,
    "Should": 19926,
    "pros": 10360,
    "utility": 10361,
    "Nature": 46934,
    "Mode": 19076,
    "formance": 10367,
    "concentration": 10368,
    "Bud": 10370,
    "amid": 10371,
    "revers": 10372,
    "interaction": 10375,
    "jurisd": 10376,
    "spells": 10377,
    "civilians": 10380,
    "utter": 10517,
    "Cooper": 10382,
    "Below": 21106,
    "entrance": 10384,
    "convert": 10385,
    "controversy": 10386,
    "owered": 10387,
    "contrary": 10388,
    "Executive": 43885,
    "Officer": 10391,
    "packages": 43789,
    "progressive": 10393,
    "reserved": 10395,
    "Samsung": 32334,
    "printed": 49695,
    "centers": 10399,
    "introduce": 10400,
    "Kennedy": 10401,
    "odds": 10402,
    "surely": 10403,
    "independence": 39894,
    "passengers": 10405,
    "reprene": 10406,
    "Beh": 25267,
    "loves": 10408,
    "ESPN": 31730,
    "facilit": 10410,
    "identical": 10411,
    "doct": 10412,
    "partnership": 10413,
    "Hide": 38518,
    "confused": 10416,
    "Cow": 40147,
    "wrest": 10419,
    "Iraqi": 10420,
    "holes": 28439,
    "Studies": 45833,
    "pregnant": 10423,
    "signals": 10425,
    "IX": 22631,
    "pulling": 10427,
    "graduate": 17680,
    "nominee": 10429,
    "permitted": 10431,
    "âĤ¬": 26391,
    "Oklahoma": 10433,
    "authorized": 19721,
    "alarm": 10436,
    "Cos": 36734,
    "generations": 10439,
    "cular": 10440,
    "dragon": 14844,
    "Software": 25423,
    "Edward": 43982,
    "controller": 36500,
    "gered": 10446,
    "Vik": 10447,
    "approached": 10448,
    "cance": 10450,
    "formula": 10451,
    "Small": 18712,
    "weakness": 10453,
    "ramp": 10454,
    "itudes": 10455,
    "brilliant": 10457,
    "accus": 10458,
    "Evil": 48477,
    "homeless": 10463,
    "iens": 10465,
    "rics": 10466,
    "Third": 22747,
    "organic": 36617,
    "presentation": 10470,
    "agh": 10471,
    "vation": 10473,
    "assembly": 41873,
    "orable": 10475,
    "holders": 16392,
    "Bernie": 33433,
    "Help": 22087,
    "tong": 10479,
    "Fight": 27365,
    "beach": 10481,
    "Lic": 26656,
    "rush": 37357,
    "Round": 22685,
    "oup": 10486,
    "Marx": 45258,
    "calculated": 10488,
    "Devil": 10489,
    "Sarah": 29284,
    "occasionally": 10491,
    "bullet": 10492,
    "Available": 14898,
    "hosp": 10496,
    "promises": 10497,
    "HIV": 10498,
    "Stadium": 10499,
    "Stock": 26207,
    "Corporation": 10501,
    "gage": 10502,
    "NG": 39058,
    "Credit": 23690,
    "sne": 10505,
    "ibl": 10506,
    "accum": 10507,
    "terrorists": 10509,
    "consciousness": 10510,
    "Zh": 10511,
    "drama": 10512,
    "oola": 10513,
    "piration": 10514,
    "labour": 10515,
    "Nin": 36091,
    "democratic": 41232,
    "assass": 10519,
    "ilation": 10520,
    "abroad": 10522,
    "metab": 10523,
    "sorts": 10524,
    "flav": 10525,
    "UB": 10526,
    "mg": 11296,
    "Nothing": 18465,
    "Od": 10529,
    "musical": 10530,
    "drops": 49253,
    "ocated": 10533,
    "ateral": 10534,
    "000000": 41853,
    "gre": 16694,
    "equality": 48203,
    "burden": 10538,
    "vig": 10539,
    "Leader": 45009,
    "------------": 10541,
    "ceremony": 10542,
    "fighter": 24733,
    "actors": 10544,
    "aman": 10546,
    "Fi": 23238,
    "align": 31494,
    "puter": 10549,
    "elder": 10550,
    "NSA": 47549,
    "representation": 10552,
    "Ontario": 10553,
    "ITH": 10554,
    "usalem": 10555,
    "harassment": 10556,
    "itzer": 10557,
    "symp": 10558,
    "boxes": 29305,
    "manifest": 10561,
    "atre": 10562,
    "dies": 25990,
    "leton": 10565,
    "ethe": 10567,
    "resolve": 10568,
    "followers": 10569,
    "km": 13276,
    "lord": 15876,
    "ammed": 10573,
    "silent": 10574,
    "Associated": 29014,
    "timing": 10576,
    "prisoners": 10577,
    "Kings": 42912,
    "Five": 20029,
    "tower": 36170,
    "approaches": 10581,
    "precisely": 10582,
    "bureau": 10583,
    "Mother": 31398,
    "Iss": 27738,
    "keyboard": 10586,
    "itual": 10587,
    "funded": 18246,
    "staying": 10589,
    "psychological": 10590,
    "mile": 18085,
    "Leon": 36185,
    "Barb": 10593,
    "wider": 10595,
    "Atlantic": 41120,
    "till": 10597,
    "Rome": 10598,
    "accompan": 41974,
    "flour": 10601,
    "aco": 10602,
    "Express": 38839,
    "Yu": 40728,
    "pleased": 10607,
    "pointing": 10609,
    "inflation": 10610,
    "ainer": 10613,
    "wedding": 10614,
    "ormon": 10615,
    "requiring": 10616,
    "qualified": 22557,
    "segment": 10618,
    "END": 23578,
    "sizes": 10620,
    "eals": 10621,
    "corrupt": 10622,
    "assador": 10623,
    "celeb": 10624,
    "dreams": 10625,
    "Mess": 36479,
    "checking": 41004,
    "Version": 14815,
    "preparing": 10629,
    "actively": 33329,
    "Diff": 28813,
    "lux": 22564,
    "Winter": 35376,
    "acteria": 10634,
    "NE": 12161,
    "deputy": 10636,
    "transgender": 10637,
    "summary": 49736,
    "inher": 10639,
    "eries": 10640,
    "Yan": 49664,
    "knock": 10643,
    "Path": 15235,
    "lip": 40712,
    "roller": 24471,
    "impression": 10647,
    "celebrate": 10648,
    "slide": 10649,
    "guests": 10650,
    "clip": 15036,
    "FS": 23324,
    "savings": 10653,
    "captain": 10654,
    "legacy": 10655,
    "Denver": 49818,
    "wounded": 10657,
    "taboola": 10658,
    "ACT": 11741,
    "pursue": 10660,
    "oxy": 23536,
    "semi": 10663,
    "Need": 23037,
    "Affairs": 10665,
    "obsc": 10666,
    "checked": 26752,
    "dual": 10668,
    "MD": 12740,
    "lem": 10671,
    "ulty": 10672,
    "Â©": 16224,
    "Elizabeth": 43568,
    "centuries": 10675,
    "arded": 10676,
    "src": 12351,
    "evident": 10678,
    "ennis": 10679,
    "atin": 10680,
    "unemployment": 10681,
    "Mario": 42315,
    "intim": 10683,
    "biological": 10685,
    "soldier": 10686,
    "Added": 13003,
    "math": 11018,
    "Gil": 40747,
    "bias": 10690,
    "dating": 38734,
    "Ocean": 46607,
    "mice": 10693,
    "hire": 11078,
    "Tes": 36504,
    "Size": 12849,
    "meters": 10700,
    "rocket": 30431,
    "essee": 10702,
    "certificate": 10703,
    "Iranian": 10704,
    "ASS": 24994,
    "grid": 25928,
    "rolling": 18886,
    "Sweden": 10710,
    "bury": 30033,
    "tissue": 10712,
    "racism": 10713,
    "Local": 14565,
    "mystery": 10715,
    "examine": 10716,
    "sits": 10718,
    "hoped": 10719,
    "oting": 10720,
    "dialogue": 10721,
    "persu": 10722,
    "MAN": 17254,
    "chronic": 10726,
    "Portland": 45330,
    "SEC": 23683,
    "parallel": 10730,
    "scandal": 10731,
    "carries": 10732,
    "phenomenon": 10733,
    "acker": 10735,
    "Ox": 38208,
    "retirement": 10737,
    "tainment": 10738,
    "ovie": 10739,
    "Gear": 38141,
    "duties": 10741,
    "dose": 34436,
    "scroll": 48728,
    "MB": 10771,
    "sauce": 10746,
    "landscape": 10747,
    "reddit": 18374,
    "Championship": 10749,
    "Reddit": 22367,
    "alid": 10751,
    "overs": 13801,
    "posting": 10754,
    "fel": 10756,
    "andy": 10757,
    "bold": 36575,
    "focusing": 10759,
    "GR": 10863,
    "deemed": 10762,
    "recommendations": 10763,
    "stepped": 10764,
    "voter": 10765,
    "Deep": 29744,
    "Instagram": 10767,
    "moderate": 47189,
    "Maryland": 10769,
    "restricted": 49343,
    "Chall": 41812,
    "tob": 10773,
    "cir": 10774,
    "Occ": 29223,
    "Ever": 23921,
    "collaps": 10777,
    "INFO": 24890,
    "=-": 10779,
    "Pict": 21300,
    "Account": 30116,
    "nc": 10782,
    "export": 39344,
    "drunk": 10785,
    "('": 19203,
    "Mort": 10788,
    "ancest": 10790,
    "Incre": 15562,
    "frequent": 10792,
    "interpretation": 10794,
    "dependent": 21186,
    "coins": 14624,
    "Bol": 10797,
    "Justin": 33229,
    "fatal": 10800,
    "cooking": 10801,
    "confusion": 10802,
    "ipher": 10803,
    "custody": 10804,
    "Morgan": 47184,
    "omach": 10806,
    "Governor": 10807,
    "restaurants": 10808,
    "eling": 10809,
    "acknowledged": 10810,
    "genes": 10812,
    "ching": 10813,
    "Hey": 14690,
    "tactics": 10815,
    "Mexican": 10816,
    "vend": 10817,
    "quer": 42517,
    "noting": 10820,
    "Cameron": 10821,
    "targeting": 10822,
    "credits": 10824,
    "emotions": 10825,
    "representatives": 10826,
    "legislative": 10828,
    "removing": 10829,
    "tweeted": 10830,
    "Carter": 49958,
    "Fixed": 13715,
    "forcing": 18766,
    "speaker": 10834,
    "males": 10835,
    "Vietnam": 10836,
    "lined": 16566,
    "concepts": 10838,
    "voices": 10839,
    "oir": 10840,
    "Trib": 10841,
    "Jerusalem": 10843,
    "Sant": 10844,
    "lady": 10846,
    "Hawai": 10847,
    "Inn": 10849,
    "Machine": 37573,
    "Emperor": 10851,
    "slot": 43384,
    "gly": 13874,
    "Process": 18709,
    "athletes": 10856,
    "Temple": 10857,
    "Represent": 40171,
    "presc": 10859,
    "tons": 27288,
    "golden": 10861,
    "punch": 10862,
    "iverpool": 10864,
    "enact": 10865,
    "lobby": 10866,
    "mos": 16785,
    "picking": 48864,
    "lifetime": 10869,
    "cognitive": 10870,
    "zo": 40565,
    "dub": 10873,
    "consists": 10874,
    "oln": 10875,
    "festival": 10876,
    "amous": 10877,
    "intellig": 10878,
    "Smart": 25610,
    "dele": 10881,
    "lapt": 10882,
    "magical": 10883,
    "Sin": 46200,
    "urities": 10886,
    "ighth": 10887,
    "Ruby": 32101,
    "Sure": 19457,
    "olving": 10890,
    "jun": 29741,
    "OST": 10892,
    "imposed": 36457,
    "astron": 10894,
    "correl": 10895,
    "Kit": 20827,
    "Future": 29783,
    "immune": 38345,
    "ocus": 10901,
    "courses": 10902,
    "lean": 13087,
    "ghost": 38933,
    "outcomes": 10906,
    "expense": 10907,
    "everyday": 10908,
    "acceptable": 16037,
    "equipped": 40617,
    "orange": 43745,
    "Dutch": 49717,
    "Rank": 27520,
    "QU": 19604,
    "Roberts": 45487,
    "disappear": 10921,
    "spawn": 48183,
    "Lam": 10923,
    "ois": 10924,
    "deserve": 10925,
    "minimal": 10926,
    "nervous": 10927,
    "Would": 17353,
    "rook": 10929,
    "Vancouver": 10930,
    "resign": 10931,
    "shire": 10932,
    "Works": 23044,
    "Build": 15580,
    "affordable": 10935,
    "Gary": 33820,
    "Arena": 10937,
    "hanging": 10938,
    "implications": 10939,
    "Song": 44241,
    "maintaining": 10941,
    "guards": 33427,
    "derived": 34631,
    "executed": 10945,
    "theories": 10946,
    "quoted": 10947,
    "Andre": 31258,
    "oga": 10949,
    "seless": 10950,
    "Belg": 10952,
    "tears": 10953,
    "Surv": 34652,
    "birthday": 10955,
    "igious": 10956,
    "immer": 10957,
    "spectrum": 10958,
    "architecture": 10959,
    "recruit": 10960,
    "arma": 10961,
    "monsters": 10963,
    "Gov": 23774,
    "destination": 10965,
    "attractive": 10966,
    "foss": 10967,
    "Moreover": 24606,
    "presents": 10969,
    "reply": 47768,
    "pton": 10972,
    "cum": 36340,
    "delight": 10974,
    "affects": 10975,
    "donations": 10976,
    "Toy": 48236,
    "Him": 10978,
    "MENT": 10979,
    "overcome": 10980,
    "itched": 10981,
    "Fantasy": 10982,
    "Hat": 40483,
    "Beast": 41490,
    "investigations": 10986,
    "hunting": 10988,
    "sessions": 10991,
    "estyle": 10992,
    "portray": 10993,
    "oids": 10994,
    "communicate": 10996,
    "comedy": 10997,
    "Yang": 38663,
    "belt": 37976,
    "Marine": 11000,
    "predicted": 11001,
    "importantly": 11003,
    "remarkable": 11004,
    "eliminate": 11005,
    "bind": 21653,
    "VID": 32247,
    "advocates": 11009,
    "Gaza": 48790,
    "DB": 20137,
    "Na": 26705,
    "Similar": 18925,
    "IES": 11015,
    "charity": 11016,
    "vas": 34439,
    "oker": 11020,
    "ndum": 11021,
    "caps": 27979,
    "Hal": 40202,
    "ean": 11025,
    "fleet": 33559,
    "recre": 11027,
    "sleeping": 11029,
    "ijing": 11030,
    "designated": 11032,
    "Ã¤": 11033,
    "animation": 11034,
    "kee": 11035,
    "Introdu": 15005,
    "/>": 15913,
    "delayed": 11038,
    "tremend": 11039,
    "curious": 11040,
    "innovation": 11044,
    "Points": 40710,
    "loading": 25138,
    "dispute": 11047,
    "ctic": 11048,
    "irds": 11049,
    "BY": 17513,
    "nurs": 11051,
    "Value": 11395,
    "IONS": 11053,
    "Hum": 32661,
    "template": 28243,
    "mers": 11056,
    "appearances": 11057,
    "Entertainment": 11058,
    "translation": 41519,
    "sake": 11060,
    "beneath": 11061,
    "inhib": 11062,
    "euro": 44252,
    "abetes": 11064,
    "studying": 11065,
    "Mas": 38224,
    "perceived": 11067,
    "examined": 11068,
    "eager": 11069,
    "coaches": 11070,
    "imper": 11071,
    "chi": 33166,
    "produces": 11073,
    "\").": 11074,
    "Everyone": 16190,
    "municip": 11076,
    "girlfriend": 45189,
    "Vice": 47910,
    "suitable": 11080,
    "opy": 11081,
    "inequ": 11082,
    "Duke": 11083,
    "Obs": 31310,
    "interior": 11087,
    "Bruce": 38509,
    "Ry": 46987,
    "analys": 11090,
    "considerable": 11091,
    "forecast": 11092,
    "fert": 11093,
    "orship": 11094,
    "Drug": 37943,
    ":\"": 11097,
    "thur": 11098,
    "Mail": 25804,
    "ballot": 11100,
    "instantly": 11101,
    "Channel": 29239,
    "picks": 11103,
    "1989": 25475,
    "tent": 11105,
    "oli": 11106,
    "civilian": 11107,
    "bling": 11108,
    "ello": 11109,
    "logo": 11112,
    "cooperation": 11113,
    "walks": 11114,
    "investments": 11115,
    "imprison": 11116,
    "Festival": 11117,
    "Ky": 30630,
    "legally": 11119,
    "gri": 11120,
    "threatening": 26159,
    "duction": 11124,
    "dismissed": 11126,
    "ibraries": 11127,
[...]
